<unk>	0
<s>	0
</s>	0
▁ga	-4.28996
s	-4.30954
▁movie	-4.59685
▁lo	-4.72892
▁a	-4.79757
▁bro	-4.84442
▁	-5.03583
▁ra	-5.0838
▁ani	-5.13058
▁ki	-5.13231
▁review	-5.14153
▁i	-5.17217
▁ana	-5.18276
i	-5.20842
y	-5.23467
▁to	-5.24728
▁e	-5.25717
▁te	-5.26876
▁ni	-5.37255
▁and	-5.41315
e	-5.43659
▁chala	-5.47448
a	-5.48903
m	-5.55492
▁is	-5.57125
▁me	-5.57188
u	-5.61891
▁kuda	-5.62958
▁ne	-5.65416
▁oka	-5.71458
na	-5.74864
▁na	-5.75547
d	-5.76716
▁gadu	-5.79444
▁s	-5.8779
▁in	-5.89014
t	-5.8941
▁ichav	-5.91062
▁manchi	-5.91537
lu	-5.92619
▁anta	-5.94813
ni	-5.95025
ra	-5.95316
▁it	-5.96348
la	-5.96826
ing	-5.97055
ga	-5.98548
▁of	-6.01375
▁ante	-6.01546
▁for	-6.01693
▁cheta	-6.02278
▁ma	-6.03691
▁pani	-6.04156
n	-6.04803
▁sigu	-6.05681
di	-6.09235
du	-6.1008
▁tis	-6.14322
▁u	-6.14477
r	-6.14545
▁undi	-6.14769
k	-6.15487
▁video	-6.15793
▁em	-6.18965
▁mabu	-6.21392
▁but	-6.22191
ru	-6.24248
▁cinema	-6.24845
ka	-6.27574
▁t	-6.27605
ki	-6.29894
ta	-6.31219
▁nuvu	-6.31596
▁you	-6.3177
▁movies	-6.3364
▁telugu	-6.35559
▁kani	-6.35619
▁n	-6.36434
▁god	-6.36569
ed	-6.37339
o	-6.374
▁tyview	-6.37878
v	-6.38028
▁2	-6.38873
▁adi	-6.3907
l	-6.39479
▁like	-6.40225
▁baya	-6.4073
▁kadu	-6.40947
▁ledu	-6.41675
▁do	-6.45681
▁1	-6.46846
▁inka	-6.47248
▁kada	-6.47735
▁la	-6.47886
▁lekunda	-6.48827
lo	-6.49626
le	-6.50249
ndi	-6.51194
▁chilar	-6.52193
9	-6.52968
▁be	-6.54293
ti	-6.54793
4	-6.55323
▁meru	-6.55839
▁bagundi	-6.5601
te	-6.56129
▁vala	-6.56351
▁time	-6.57954
▁please	-6.58452
▁nenu	-6.59575
▁first	-6.59896
▁on	-6.6058
ne	-6.65015
2	-6.65304
▁lu	-6.65595
p	-6.65621
▁super	-6.67583
da	-6.67643
▁ela	-6.67853
▁not	-6.67865
g	-6.69087
ya	-6.69115
▁le	-6.69658
▁so	-6.72555
▁fans	-6.73728
▁mali	-6.73851
▁naku	-6.76058
ku	-6.76423
1	-6.76776
▁your	-6.77347
▁tat	-6.77947
▁fan	-6.7857
▁hayiga	-6.7872
▁sir	-6.7905
▁hero	-6.8009
va	-6.80206
st	-6.81124
h	-6.81134
▁m	-6.81557
▁waiting	-6.82616
▁chesi	-6.83506
▁mari	-6.84455
▁meda	-6.84918
▁no	-6.85145
▁reply	-6.85231
▁enduku	-6.8595
b	-6.86634
▁al	-6.86838
▁are	-6.86926
▁mi	-6.88507
▁babu	-6.89374
▁b	-6.89648
z	-6.89737
▁asalu	-6.91642
tu	-6.92136
ly	-6.93388
▁pawankalyan	-6.94017
▁valu	-6.94799
▁gurinchi	-6.94939
▁best	-6.95136
▁watch	-6.9566
▁story	-6.9611
▁ye	-6.96158
▁una	-6.9691
▁kosam	-6.97387
▁wit	-6.97813
▁vadu	-6.98294
▁enti	-6.99192
▁ala	-6.99312
▁enta	-6.99765
er	-6.99815
▁gadida	-7.01003
▁ka	-7.01472
ma	-7.02836
vi	-7.04098
▁k	-7.04291
li	-7.04912
▁nuv	-7.05366
▁was	-7.05615
▁voice	-7.06212
▁film	-7.07001
▁3	-7.07399
▁just	-7.07579
▁chepu	-7.0815
▁inta	-7.08409
▁ama	-7.08591
▁10	-7.08805
de	-7.09213
▁mana	-7.09821
▁from	-7.09931
c	-7.10344
nu	-7.10395
▁one	-7.11179
▁we	-7.11183
▁hit	-7.11595
▁ah	-7.11615
▁chila	-7.12075
▁ke	-7.12199
▁pk	-7.13829
▁se	-7.14075
ng	-7.15146
▁o	-7.15704
to	-7.15836
▁neku	-7.15871
▁ade	-7.15995
▁baga	-7.16532
▁sigulekunda	-7.17166
▁bagndi	-7.17172
▁r	-7.17531
▁di	-7.18301
in	-7.18768
▁chey	-7.19226
▁half	-7.19511
▁my	-7.19845
dam	-7.20161
▁ha	-7.20297
▁sanka	-7.20423
▁love	-7.20904
7	-7.21577
▁ntr	-7.2198
▁chesaru	-7.22046
▁make	-7.22421
▁idi	-7.24272
re	-7.24445
▁release	-7.25014
▁ipudu	-7.25198
▁cheyandi	-7.25971
ke	-7.26038
ri	-7.26118
▁5	-7.26137
▁urstrulymahesh	-7.26256
▁or	-7.27135
▁tu	-7.2717
▁am	-7.28297
3	-7.28447
▁tarak	-7.29978
▁leknda	-7.30127
▁suport	-7.30904
▁he	-7.30919
▁mb	-7.31009
▁vadi	-7.31582
do	-7.31813
▁c	-7.31972
▁english	-7.32806
▁reviews	-7.33077
▁de	-7.33447
▁peda	-7.34001
al	-7.34388
▁wil	-7.34533
▁ur	-7.347
ro	-7.35021
▁plz	-7.35209
▁fel	-7.3525
▁as	-7.35264
▁gadi	-7.35362
ch	-7.3607
si	-7.36791
▁ko	-7.37219
▁edo	-7.37481
▁sai	-7.38146
▁matram	-7.38525
▁unte	-7.39079
▁g	-7.39583
ko	-7.39754
▁po	-7.40123
▁only	-7.40391
▁laga	-7.40623
▁team	-7.4073
▁p	-7.41706
▁aina	-7.41792
▁re	-7.42981
▁acting	-7.43554
▁ap	-7.43839
▁what	-7.4464
▁nani	-7.45117
▁twet	-7.45146
▁mundu	-7.45156
▁chese	-7.45252
▁chesina	-7.45476
▁ayina	-7.45515
▁v	-7.46091
▁cheste	-7.46109
▁pila	-7.46301
nd	-7.46474
sh	-7.46975
am	-7.4709
▁same	-7.47128
▁ok	-7.47144
▁d	-7.47767
▁have	-7.48199
▁chusi	-7.48452
▁edi	-7.48749
▁ardam	-7.49482
▁ila	-7.49593
▁4	-7.49737
▁back	-7.49778
▁prati	-7.50578
▁meku	-7.52112
▁last	-7.52482
▁veli	-7.52675
▁coment	-7.52904
ve	-7.53076
▁chanel	-7.53288
▁arey	-7.53774
nta	-7.54131
pa	-7.54923
▁jagan	-7.55225
▁go	-7.56835
▁chesav	-7.57026
▁ane	-7.57144
▁family	-7.57207
f	-7.57466
▁hapy	-7.58077
vu	-7.58363
▁star	-7.58808
es	-7.596
▁manchodu	-7.60076
tam	-7.60199
chi	-7.60409
▁bad	-7.60482
▁can	-7.60804
▁ba	-7.60856
▁andaru	-7.61096
▁redy	-7.61136
▁party	-7.61375
▁an	-7.61925
ina	-7.61976
▁worst	-7.62089
▁ishtam	-7.62095
▁moda	-7.62237
▁actor	-7.62909
▁vi	-7.63487
▁aya	-7.63568
▁mas	-7.63736
▁chesadu	-7.64113
▁nv	-7.64263
▁bjp	-7.6456
gu	-7.64661
w	-7.64922
▁entra	-7.65152
redy	-7.65159
▁unda	-7.65276
▁koda	-7.65413
▁beter	-7.66793
▁nakandi	-7.67032
▁motam	-7.67719
▁realy	-7.67848
▁did	-7.68903
▁epudu	-7.68933
▁after	-7.6961
▁vundi	-7.69657
▁ilanti	-7.69685
▁istam	-7.6979
▁pls	-7.6988
▁twets	-7.69997
▁at	-7.70213
▁chi	-7.70574
cr	-7.70633
▁da	-7.70899
▁ya	-7.71027
cha	-7.71336
▁man	-7.71569
▁chusa	-7.71669
▁aluarjun	-7.7168
▁dani	-7.71829
▁rey	-7.71935
▁fake	-7.73115
▁mo	-7.73231
very	-7.73388
▁aite	-7.73412
▁garu	-7.73681
pu	-7.74032
▁ve	-7.74038
▁sari	-7.74282
se	-7.75002
▁mandi	-7.7502
8	-7.75128
▁untadi	-7.7522
sa	-7.75607
5	-7.7568
▁director	-7.75751
▁comedy	-7.76177
▁andariki	-7.76334
▁day	-7.76681
▁corect	-7.7671
ity	-7.76835
▁waste	-7.77005
▁mahesh	-7.77139
▁roju	-7.77513
▁niku	-7.77597
▁prabas	-7.77644
▁tey	-7.77834
▁leda	-7.78155
▁about	-7.78295
▁peti	-7.78699
▁chesa	-7.78717
▁vachi	-7.7877
an	-7.79213
▁orey	-7.79481
▁che	-7.79842
x	-7.80384
▁apudu	-7.80558
▁twiter	-7.80993
▁tanks	-7.81011
▁hi	-7.81293
▁show	-7.81315
▁how	-7.81564
▁maku	-7.81892
ba	-7.81925
po	-7.81997
▁iam	-7.82156
▁ayindi	-7.82288
▁nice	-7.82527
▁antey	-7.82672
▁vote	-7.83072
▁trailer	-7.83206
▁bgm	-7.83253
▁kuka	-7.83347
▁ekada	-7.83956
ledu	-7.84261
ar	-7.84916
▁emi	-7.84969
▁puku	-7.85123
nt	-7.85287
▁anduke	-7.85513
▁start	-7.85564
▁nunchi	-7.86693
▁some	-7.87361
taru	-7.87399
▁character	-7.87596
▁next	-7.87793
▁ysjagan	-7.8781
▁song	-7.87833
▁by	-7.87894
▁nen	-7.88167
▁20	-7.88452
▁if	-7.88721
kunda	-7.889
▁konchem	-7.88982
▁ekuva	-7.89019
▁surya	-7.89091
j	-7.90651
▁chetha	-7.90768
▁kota	-7.90802
▁chudu	-7.90983
mo	-7.91096
▁vere	-7.91275
▁climax	-7.91984
▁bigbostelugu	-7.91992
▁chestunaru	-7.92169
mu	-7.92807
▁ikada	-7.9292
▁telusu	-7.92934
▁broter	-7.9308
▁inko	-7.93331
▁nundi	-7.9341
▁endi	-7.93609
▁also	-7.93843
▁andari	-7.94319
▁great	-7.94461
▁scene	-7.95013
▁ninu	-7.9554
▁who	-7.95549
▁un	-7.95796
▁tapa	-7.95834
▁bu	-7.95966
▁anukuna	-7.96052
▁watched	-7.96196
▁negative	-7.96427
▁vijay	-7.96447
▁y	-7.96453
▁tapu	-7.96624
▁mis	-7.9664
▁mp	-7.9687
▁ful	-7.96929
▁aka	-7.97369
ce	-7.97405
▁flop	-7.97576
▁life	-7.97717
▁ti	-7.97994
pi	-7.9801
▁ayi	-7.98065
▁akada	-7.98068
▁teatre	-7.98261
▁give	-7.98262
▁lanja	-7.98318
▁top	-7.9834
ja	-7.98955
▁kalyan	-7.99072
on	-7.99171
▁ram	-7.99222
▁tank	-7.9934
▁ad	-7.99572
▁his	-7.99802
▁valaki	-7.99813
chu	-7.99965
▁emo	-8.00753
▁mida	-8.00784
▁kana	-8.00952
▁watching	-8.01007
fan	-8.01222
▁galu	-8.01289
▁wait	-8.01355
▁mata	-8.01539
▁vakelsab	-8.01676
▁cheap	-8.02313
▁manchod	-8.02596
▁tag	-8.02743
▁chetaga	-8.02793
▁unaru	-8.02909
▁more	-8.03126
▁ja	-8.03145
gi	-8.03173
▁chalu	-8.03294
▁l	-8.03403
go	-8.03451
▁batuku	-8.03503
▁always	-8.03682
▁cheyali	-8.03733
no	-8.03918
▁cha	-8.03965
ram	-8.03967
▁vela	-8.04041
▁folow	-8.04116
or	-8.04264
07	-8.04427
▁gani	-8.04599
▁jai	-8.04657
▁boka	-8.04932
▁ku	-8.05702
▁im	-8.05774
▁lanjakodaka	-8.05935
▁tan	-8.06004
nda	-8.06391
at	-8.06595
▁gale	-8.06843
▁pa	-8.06849
▁big	-8.06949
▁cm	-8.07073
▁pada	-8.07127
▁try	-8.07273
▁chepa	-8.07513
▁eh	-8.07523
▁manam	-8.07687
▁trol	-8.07993
▁chestaru	-8.08097
▁ta	-8.081
sam	-8.08171
me	-8.08473
▁manchdu	-8.08578
▁now	-8.08631
6	-8.08736
ion	-8.08768
▁post	-8.08997
yi	-8.09142
▁nuve	-8.09145
ala	-8.09198
▁leka	-8.0929
▁want	-8.09378
daniki	-8.09499
▁ada	-8.09963
▁people	-8.10033
▁koja	-8.101
▁cheyadam	-8.10111
▁lk	-8.1028
▁its	-8.10592
▁series	-8.10781
▁view	-8.10862
▁lanti	-8.11013
▁tdp	-8.11021
▁india	-8.11037
▁videos	-8.11247
▁block	-8.11571
▁ho	-8.12189
▁know	-8.12267
▁koncham	-8.1229
▁days	-8.12739
▁evaru	-8.12819
ha	-8.12932
▁ayana	-8.13596
aru	-8.13645
▁out	-8.13646
▁mada	-8.13676
▁second	-8.13764
▁peta	-8.13867
che	-8.13941
▁lekapote	-8.14029
▁even	-8.14445
▁miru	-8.14447
▁over	-8.15517
yam	-8.15594
▁abi	-8.15644
▁sr	-8.15877
▁bi	-8.16104
▁ayite	-8.16488
▁ento	-8.1695
▁ey	-8.16994
bi	-8.17399
▁bo	-8.17561
▁govt	-8.17642
out	-8.17739
▁chepi	-8.17839
▁expect	-8.18235
▁up	-8.18861
▁tink	-8.18949
en	-8.19403
▁antaru	-8.19692
▁pe	-8.19829
▁paka	-8.19854
▁memu	-8.19886
▁valani	-8.19951
▁any	-8.20426
▁mu	-8.20602
▁hayga	-8.20858
▁name	-8.20987
▁h	-8.21022
▁peru	-8.21023
▁leni	-8.21457
mi	-8.2167
▁av	-8.21762
▁mona	-8.21829
▁nu	-8.22125
▁kadara	-8.22343
▁chepina	-8.22459
▁koni	-8.22596
▁work	-8.22613
▁master	-8.22631
▁okati	-8.22856
▁gadiki	-8.22968
▁rc	-8.23005
ndu	-8.2307
▁9	-8.23082
▁chesta	-8.2334
▁much	-8.23665
▁every	-8.23669
▁tere	-8.24
▁denga	-8.24131
▁puka	-8.24228
▁poyi	-8.24511
▁urstruly	-8.24763
▁va	-8.24782
ji	-8.24921
▁why	-8.25022
▁politics	-8.25093
▁coments	-8.25218
45	-8.25331
▁china	-8.25398
▁ch	-8.25416
▁ot	-8.25442
▁aba	-8.25538
nga	-8.25598
▁kumav	-8.25879
▁nitin	-8.25886
▁money	-8.25904
sha	-8.25936
▁vachina	-8.26161
lani	-8.26178
▁yes	-8.26309
▁share	-8.26312
▁ide	-8.26555
▁fast	-8.26867
▁kodaka	-8.2718
▁chestuna	-8.27195
▁evadu	-8.27287
nte	-8.27342
▁mega	-8.27938
▁chiru	-8.27952
▁koduku	-8.28262
▁say	-8.28435
ment	-8.28513
ntr	-8.28525
▁sa	-8.28813
▁use	-8.28879
▁must	-8.28963
▁tarvata	-8.29395
▁batch	-8.29455
▁music	-8.29538
▁heart	-8.29741
▁superb	-8.29903
▁adu	-8.29932
▁ca	-8.302
rs	-8.30333
▁pichi	-8.30433
▁undali	-8.30447
▁lucha	-8.30491
▁vuna	-8.30541
▁30	-8.30629
▁undadu	-8.30691
▁opinion	-8.30706
ge	-8.31349
▁late	-8.31906
pe	-8.32096
▁cbn	-8.32113
▁charan	-8.32416
ir	-8.3242
laki	-8.32793
man	-8.33019
ye	-8.33201
▁bagund	-8.33254
▁daniki	-8.33292
▁many	-8.33508
08	-8.3364
pudu	-8.33846
▁direct	-8.33849
▁kandistuna	-8.33916
▁sen	-8.33988
▁main	-8.33993
▁kavali	-8.34044
▁mr	-8.34144
▁years	-8.34278
ey	-8.34394
▁talk	-8.34701
▁chaep	-8.34851
▁get	-8.35068
▁vachindi	-8.35148
▁eni	-8.35178
of	-8.35217
▁j	-8.35229
▁hai	-8.35261
▁0	-8.35296
▁ravi	-8.35474
adu	-8.35693
▁sarkaruvaripata	-8.35794
▁scenes	-8.35909
▁si	-8.36092
▁mind	-8.36262
ani	-8.36349
▁bos	-8.36395
▁tana	-8.36658
▁performance	-8.36747
les	-8.3677
▁pata	-8.36788
▁bochu	-8.36824
▁avi	-8.36946
▁tel	-8.37062
▁krishna	-8.37075
▁whi	-8.37312
▁non	-8.37352
▁w	-8.37479
ana	-8.37897
wa	-8.38089
▁pic	-8.38218
▁pu	-8.38227
▁ten	-8.38619
▁pspk	-8.38711
▁chepandi	-8.38886
▁trend	-8.38956
▁nar	-8.38956
vsredy	-8.38964
▁min	-8.39679
▁space	-8.39689
▁way	-8.40073
▁most	-8.40652
▁blockbuster	-8.40659
ste	-8.40784
▁guda	-8.41138
raj	-8.41145
▁perfect	-8.41649
▁morning	-8.41649
▁ncbn	-8.41661
▁pushpa	-8.4168
▁buny	-8.41765
▁per	-8.4177
hi	-8.41954
▁f	-8.42128
▁set	-8.42192
▁aye	-8.42246
here	-8.42548
▁here	-8.42712
▁play	-8.42815
▁chusina	-8.43098
▁gari	-8.43118
tadu	-8.43165
▁emotional	-8.43693
▁mawa	-8.43928
be	-8.44104
▁modi	-8.44277
ation	-8.44333
▁ava	-8.44681
▁krack	-8.44711
▁remake	-8.44764
▁election	-8.44846
▁sory	-8.44873
▁vaste	-8.4488
tunav	-8.44945
▁pi	-8.45092
▁year	-8.45676
q	-8.45728
▁tamil	-8.45743
▁kabati	-8.45754
▁prime	-8.45759
▁intlo	-8.45759
▁unde	-8.45962
▁okasari	-8.46009
▁edava	-8.46199
▁said	-8.46282
▁chesko	-8.467
▁wrong	-8.4681
▁eri	-8.47032
▁our	-8.47073
cause	-8.47135
▁red	-8.4727
▁kumar	-8.47294
▁tv	-8.47398
▁nina	-8.47631
▁pawan	-8.47684
▁whe	-8.47833
▁genuine	-8.47869
▁antav	-8.47915
▁dagara	-8.48068
▁songs	-8.48315
▁maha	-8.4861
nya	-8.48812
▁audience	-8.48944
▁range	-8.48975
▁6	-8.49195
ter	-8.49551
▁fre	-8.49565
▁new	-8.49571
▁open	-8.49648
▁su	-8.49708
bo	-8.49759
▁anukunta	-8.50159
▁papam	-8.50293
▁co	-8.50337
▁vadiki	-8.5085
▁chesindi	-8.50893
▁point	-8.50991
▁andarki	-8.51184
10	-8.51231
▁bada	-8.51472
▁kante	-8.52077
india	-8.52153
▁ned	-8.52178
▁already	-8.52241
▁diferent	-8.52241
▁disapointed	-8.52312
▁anipinchindi	-8.52427
▁mala	-8.52711
ty	-8.52877
▁asal	-8.52892
▁lone	-8.52917
▁tese	-8.52971
▁arjun	-8.53459
▁gala	-8.53685
il	-8.54094
▁bot	-8.54385
▁match	-8.54555
▁girl	-8.54635
▁nigt	-8.54683
▁radu	-8.54755
ry	-8.54763
▁velu	-8.55236
▁urs	-8.55444
▁df	-8.55484
▁trols	-8.55495
low	-8.55604
▁average	-8.55652
shi	-8.5574
▁oter	-8.55823
▁anaru	-8.55844
▁sare	-8.56043
▁7	-8.56061
oficial	-8.56141
▁miku	-8.56255
▁nak	-8.56511
pati	-8.56604
▁acount	-8.56813
▁pawala	-8.56818
▁again	-8.56822
he	-8.56933
▁ro	-8.57022
▁bayata	-8.57216
▁matalu	-8.57365
▁andi	-8.57366
▁vina	-8.57482
▁iche	-8.57489
bu	-8.57609
▁enjoy	-8.57813
ck	-8.57951
▁kala	-8.57973
▁pogaru	-8.5801
▁petu	-8.5805
tav	-8.58199
▁tq	-8.58206
▁50	-8.58265
nam	-8.58418
▁solu	-8.58529
▁du	-8.58808
for	-8.58956
▁content	-8.59182
▁should	-8.59186
▁power	-8.59191
ulu	-8.59226
est	-8.59294
▁chestunav	-8.59338
▁nanu	-8.59457
pk	-8.5968
▁akil	-8.59747
▁hig	-8.60169
▁spoiler	-8.60237
▁matladu	-8.6027
▁youtube	-8.60386
▁alwaysramcharan	-8.60391
▁check	-8.60426
▁sushant	-8.60437
▁par	-8.60769
▁guys	-8.60821
▁nijam	-8.61258
▁pan	-8.61331
▁awesome	-8.61604
▁excelent	-8.61604
▁public	-8.61604
▁musictaman	-8.61604
alokesh	-8.61605
▁unadu	-8.61679
▁sagar	-8.62069
▁puk	-8.62275
▁nag	-8.62669
▁pas	-8.62713
▁figt	-8.62744
▁dayachesi	-8.62839
▁corona	-8.62839
▁respect	-8.62843
▁kinda	-8.62865
▁level	-8.62878
▁matlada	-8.62916
▁overal	-8.62948
ite	-8.63012
▁dr	-8.63061
▁vey	-8.63106
up	-8.63139
▁kan	-8.63351
23	-8.63967
▁feling	-8.63985
▁kchirutwets	-8.64089
▁explain	-8.64089
vala	-8.64115
▁artam	-8.6415
▁untundi	-8.64201
▁she	-8.64234
▁action	-8.64283
▁varaku	-8.64416
▁end	-8.64642
▁rating	-8.64661
▁us	-8.64777
ies	-8.64952
▁may	-8.64978
▁vale	-8.65092
143	-8.65275
▁chari	-8.65303
▁ichi	-8.65339
ers	-8.65347
▁entertainer	-8.65358
tarak	-8.65383
▁teaser	-8.65404
▁job	-8.65444
▁case	-8.65508
▁shiva	-8.65573
▁cr	-8.65676
mb	-8.65714
▁cheparu	-8.65723
▁padi	-8.65724
0	-8.65771
vo	-8.66129
av	-8.66182
▁anav	-8.6634
▁cheyi	-8.66421
▁made	-8.66576
▁clear	-8.66637
▁paytm	-8.66637
▁powerful	-8.66652
▁evari	-8.66872
▁untaru	-8.66899
▁hari	-8.66929
el	-8.67068
▁kiran	-8.6724
▁has	-8.67482
▁words	-8.6758
nde	-8.67599
tunaru	-8.67698
▁bale	-8.67871
▁problem	-8.67936
▁type	-8.67952
▁chepav	-8.67955
un	-8.67979
▁sarlu	-8.68089
▁starma	-8.68193
▁chilara	-8.68237
▁elanti	-8.68316
▁vedu	-8.68502
▁paid	-8.68515
▁smb	-8.6864
akasham	-8.68653
▁chai	-8.68711
▁chepe	-8.68719
123	-8.69224
▁zombie	-8.69251
vadu	-8.69302
▁baiya	-8.69351
▁telidu	-8.69382
▁naven	-8.69384
▁finaly	-8.69531
▁ika	-8.69619
▁poster	-8.69975
▁deni	-8.70233
▁pra	-8.70432
▁experience	-8.70585
▁ganesh	-8.70622
▁copy	-8.70645
▁vs	-8.70665
▁rendu	-8.70683
tunadu	-8.70705
▁sab	-8.70753
▁game	-8.70874
▁vedi	-8.70977
mahesh	-8.71212
▁oficial	-8.7136
28	-8.71437
▁shot	-8.71716
▁state	-8.71927
▁rustum	-8.71936
▁kgf	-8.71936
▁update	-8.71945
▁personal	-8.71986
▁16	-8.72013
andra	-8.72032
▁mama	-8.72038
▁dfm	-8.72071
▁heroine	-8.72087
▁chepali	-8.72124
▁chuste	-8.72532
02	-8.72684
▁chuda	-8.72742
▁part	-8.72755
tey	-8.72775
sari	-8.73191
kandi	-8.73253
ronaldo	-8.73309
▁teja	-8.73348
▁clas	-8.73383
▁janalu	-8.73453
▁antunav	-8.73454
▁asala	-8.73508
▁kanada	-8.73596
▁chestadu	-8.73722
▁chuse	-8.73793
▁ipude	-8.73821
▁gu	-8.73923
tuna	-8.74249
▁evadi	-8.74715
▁reason	-8.74731
▁boring	-8.74731
▁ipichan	-8.74744
▁ban	-8.74749
▁nachindi	-8.74834
dani	-8.74873
▁nd	-8.7512
▁cult	-8.75148
▁pavan	-8.7524
▁alu	-8.75362
▁wel	-8.76048
▁rigt	-8.76135
▁triler	-8.76185
▁chudandi	-8.76252
▁cheya	-8.76419
▁baledu	-8.76495
▁link	-8.76499
▁chestunadu	-8.76514
natu	-8.76628
▁loved	-8.76746
dfm	-8.76925
▁friends	-8.76927
▁ches	-8.77034
▁gali	-8.77063
aka	-8.77523
▁screnplay	-8.77533
▁help	-8.77533
▁encourage	-8.77542
▁vacha	-8.77608
▁ayte	-8.77634
▁got	-8.77654
▁dabulu	-8.77705
▁yedava	-8.77777
▁chepte	-8.77973
▁donga	-8.7805
▁real	-8.78059
▁ini	-8.78151
▁anedi	-8.78343
20	-8.78465
ting	-8.78475
▁manaki	-8.78549
vali	-8.7857
▁kep	-8.78829
18	-8.7895
▁sam	-8.78963
▁episode	-8.78981
▁upload	-8.78981
▁drama	-8.79003
▁munda	-8.79069
▁hand	-8.79105
▁cinemalu	-8.79475
▁kama	-8.79676
▁alanti	-8.79716
▁king	-8.79723
▁kar	-8.79835
▁take	-8.79866
▁je	-8.801
▁ting	-8.80157
niki	-8.80179
▁anti	-8.80318
▁edu	-8.80412
▁raju	-8.80418
▁kasta	-8.8042
▁mara	-8.80443
▁industry	-8.80452
▁chance	-8.80478
▁long	-8.80491
▁season	-8.80553
▁films	-8.80695
▁oh	-8.80748
▁pro	-8.80827
▁slow	-8.80828
twetz	-8.80836
▁logic	-8.80899
stunaru	-8.80947
▁okadu	-8.81004
▁fa	-8.8111
▁col	-8.81326
ts	-8.81522
ic	-8.81529
▁sha	-8.81542
▁petuko	-8.81742
▁him	-8.81969
nti	-8.81977
▁vastundi	-8.81978
▁hope	-8.81993
riki	-8.82038
▁ver	-8.82082
▁sri	-8.82108
ive	-8.82285
vachu	-8.82286
nk	-8.82489
▁news	-8.82769
▁nakand	-8.82944
▁don	-8.8303
▁raja	-8.83106
▁sugest	-8.83423
▁positive	-8.83519
varu	-8.8356
▁war	-8.84067
▁kula	-8.8411
▁line	-8.84118
96	-8.84147
alu	-8.84433
▁mere	-8.84442
kumar	-8.8445
▁undu	-8.84707
esh	-8.84725
▁jsp	-8.84787
han	-8.84857
▁8	-8.84857
12	-8.84871
▁chepta	-8.84941
▁abayi	-8.85061
▁chudali	-8.85102
▁naresh	-8.85123
▁doubt	-8.85134
▁where	-8.85136
▁jo	-8.85155
ism	-8.8522
▁taman	-8.85221
▁kalisi	-8.85244
▁cheyaledu	-8.8527
▁bane	-8.85476
▁koti	-8.85514
19	-8.8568
ful	-8.85916
▁cut	-8.86128
▁wek	-8.86192
▁pr	-8.86241
▁janasenaparty	-8.86561
▁concept	-8.86597
▁abijet	-8.86608
rd	-8.86651
▁eroju	-8.86675
▁expectations	-8.867
▁sama	-8.86786
▁anuko	-8.86918
▁dont	-8.86937
▁kali	-8.86962
▁chestu	-8.86987
06	-8.86994
▁media	-8.87069
indi	-8.87132
09	-8.87322
ali	-8.87537
▁vo	-8.87644
▁mar	-8.87822
▁mer	-8.87983
▁script	-8.88148
▁stil	-8.88165
▁reach	-8.88178
live	-8.8832
▁satya	-8.88361
▁harika	-8.88395
13	-8.8845
▁ever	-8.88526
staru	-8.88695
▁pol	-8.88783
▁raj	-8.88818
vadam	-8.88827
▁jati	-8.88964
bjp	-8.89094
▁mve	-8.8921
▁boy	-8.89224
▁poti	-8.89396
▁complete	-8.89462
▁chusko	-8.89472
it	-8.89508
▁iste	-8.89548
▁bok	-8.89714
▁vunda	-8.89748
▁kapatadari	-8.89761
▁true	-8.8978
pspk	-8.89846
▁tala	-8.90022
▁anaya	-8.90049
um	-8.90147
kar	-8.90252
▁kong	-8.90575
▁kr	-8.90606
ever	-8.90607
▁sale	-8.90653
▁vache	-8.90726
▁kata	-8.90802
▁chu	-8.90936
▁nayala	-8.91148
▁cal	-8.91227
▁cast	-8.91351
anta	-8.91356
▁ycp	-8.914
▁suriya	-8.914
▁sohel	-8.91428
▁rgv	-8.91451
▁manishi	-8.91683
▁never	-8.91689
ran	-8.9188
▁kalu	-8.92086
▁poi	-8.92115
▁bai	-8.92312
tle	-8.9278
lam	-8.92788
▁cover	-8.92805
mp	-8.92965
▁ichina	-8.92966
ndra	-8.93051
▁easy	-8.93072
▁takuva	-8.93088
▁prove	-8.93142
able	-8.93143
kana	-8.93217
▁nandi	-8.93227
ndo	-8.93346
▁apu	-8.93377
▁avg	-8.93517
tundi	-8.93536
▁bc	-8.93672
▁tem	-8.93685
▁chusaka	-8.93704
age	-8.94613
26	-8.94714
▁netflix	-8.94761
▁routine	-8.94761
▁15	-8.94768
▁change	-8.94775
▁chakra	-8.94786
speaks	-8.94876
▁sln	-8.9499
▁repu	-8.95032
▁cheyale	-8.95094
▁language	-8.95114
▁dialogue	-8.95131
▁mla	-8.9523
▁hu	-8.9527
▁ayna	-8.95319
mal	-8.95535
▁papa	-8.95729
demo	-8.95797
▁indian	-8.95876
▁ji	-8.95949
▁answer	-8.96486
▁sankranti	-8.96486
▁robert	-8.96486
▁gayatri	-8.96486
▁delete	-8.96487
▁package	-8.96487
▁damu	-8.96515
▁alage	-8.96778
ju	-8.96785
▁colections	-8.97164
▁chusta	-8.97222
king	-8.97281
▁fc	-8.97393
mani	-8.97499
ney	-8.98103
▁ktrtrs	-8.98242
▁holywod	-8.98257
▁understand	-8.98259
▁por	-8.98305
▁stop	-8.9835
▁telangana	-8.98521
▁undedi	-8.98679
▁ivu	-8.98749
za	-8.98752
▁rojulu	-8.99145
▁edit	-8.99206
ada	-8.99297
▁avun	-8.99561
▁pai	-8.99827
▁simple	-9.00026
▁sunrisers	-9.00026
▁silent	-9.00026
▁covid	-9.00027
▁babay	-9.00051
▁yela	-9.00089
▁ready	-9.00136
uko	-9.00209
sina	-9.00284
▁haha	-9.00367
▁ata	-9.00377
▁scren	-9.00443
tra	-9.00488
▁vade	-9.00489
▁alane	-9.00586
▁wa	-9.00668
▁pakana	-9.00773
▁role	-9.00958
stuna	-9.01029
▁anduku	-9.01049
▁march	-9.01068
▁chustuna	-9.01089
▁son	-9.01314
▁harish	-9.01367
fi	-9.01378
▁kaka	-9.01454
▁en	-9.01789
▁wish	-9.01826
▁malayalam	-9.01844
▁upena	-9.01864
▁title	-9.01968
▁balaya	-9.02032
▁chay	-9.02055
▁amayi	-9.02105
▁peli	-9.02147
▁chusanu	-9.02154
▁vunte	-9.0224
▁ina	-9.02253
▁word	-9.02545
▁pb	-9.02552
▁nduku	-9.02657
▁idea	-9.02778
gane	-9.03023
▁choda	-9.03104
▁anadu	-9.03157
yo	-9.03446
▁pote	-9.03451
▁telsu	-9.03455
movies	-9.03456
▁base	-9.03573
birtday	-9.03644
nani	-9.03685
▁photo	-9.03696
▁disco	-9.03711
▁pora	-9.03712
▁unai	-9.0383
▁aha	-9.039
vatam	-9.03909
▁bat	-9.03938
▁saw	-9.03999
▁max	-9.04121
▁felow	-9.04181
▁cheptunav	-9.04197
▁broker	-9.04214
▁today	-9.04228
manu	-9.04231
▁pics	-9.0441
▁elevations	-9.04784
▁total	-9.0487
▁chesuko	-9.05047
▁andra	-9.05069
▁plan	-9.05123
lanti	-9.05186
▁compare	-9.05259
▁bratuku	-9.05446
▁lok	-9.0546
▁short	-9.05517
▁atleast	-9.05583
▁comercial	-9.05583
▁phone	-9.05585
▁mention	-9.05585
▁konda	-9.05673
▁own	-9.05684
we	-9.05762
atesh	-9.05799
▁topu	-9.05812
▁antunaru	-9.05835
lara	-9.05836
chuko	-9.05992
▁vesi	-9.05993
▁jalaga	-9.06019
▁heroes	-9.06144
per	-9.06198
▁cu	-9.0649
▁trs	-9.06533
▁live	-9.06573
you	-9.06652
▁aindi	-9.06684
▁atu	-9.06881
▁loki	-9.06898
▁bore	-9.06909
tla	-9.0699
▁player	-9.07221
ary	-9.07291
ct	-9.07338
je	-9.07413
napudu	-9.07445
▁clarity	-9.07506
▁dc	-9.07568
▁vastadi	-9.07638
▁page	-9.07646
▁ado	-9.0779
25	-9.0783
▁tougt	-9.07842
▁deniki	-9.07872
fa	-9.07894
▁actors	-9.07948
▁hanu	-9.08064
▁characters	-9.08073
▁picha	-9.08139
▁gurtu	-9.08241
▁cheptuna	-9.08476
▁ac	-9.08557
day	-9.0878
odu	-9.08849
tdp	-9.08935
leda	-9.08982
▁18	-9.09131
▁directors	-9.09173
▁person	-9.09406
▁tings	-9.09465
▁andarky	-9.09467
▁cheyadaniki	-9.09517
▁list	-9.09566
▁tolywod	-9.09698
▁veste	-9.09705
▁25	-9.09749
tion	-9.09772
▁ame	-9.0992
▁aludu	-9.09921
24	-9.10125
▁aku	-9.10243
▁barat	-9.1026
rc	-9.1028
▁does	-9.10293
▁andarini	-9.10301
▁tali	-9.10353
co	-9.10367
15	-9.10743
▁keka	-9.10828
▁jail	-9.10837
ho	-9.11094
▁panul	-9.11154
ci	-9.11402
▁vedava	-9.11445
▁radeshyam	-9.11465
▁political	-9.11466
▁spread	-9.11467
▁suder	-9.11477
▁sagam	-9.11486
▁andulo	-9.11495
▁madya	-9.11496
▁face	-9.11515
▁run	-9.11576
▁saho	-9.11627
▁mohan	-9.1179
▁kcr	-9.11841
▁anu	-9.11883
raju	-9.12169
▁chosi	-9.12244
▁web	-9.12254
▁vati	-9.12293
▁tl	-9.12449
▁mem	-9.12456
▁uv	-9.12516
▁vada	-9.12519
▁navu	-9.126
▁break	-9.12715
valu	-9.13035
▁jack	-9.13076
▁ev	-9.13109
▁dengi	-9.13216
▁kurcho	-9.13507
▁cinima	-9.13507
▁stories	-9.13509
gadu	-9.13527
▁available	-9.13532
▁hyd	-9.13607
▁parledu	-9.13625
▁madyalo	-9.13663
lapaka	-9.13715
▁pad	-9.13733
dey	-9.13739
▁hard	-9.13769
▁untadu	-9.13879
▁niba	-9.13941
nduku	-9.14043
▁tesi	-9.14159
▁place	-9.14206
▁win	-9.14216
▁bal	-9.14275
line	-9.144
▁amai	-9.14439
▁manchiga	-9.14446
ama	-9.14786
▁act	-9.14864
▁dialogues	-9.15137
▁antuna	-9.15237
ld	-9.15276
esi	-9.1528
▁ab	-9.15415
▁two	-9.15567
▁situation	-9.1559
▁special	-9.1559
▁behave	-9.15591
▁court	-9.15593
▁banisa	-9.15595
▁tamanah	-9.15602
▁avutundi	-9.15667
▁world	-9.15687
▁agre	-9.157
▁single	-9.1574
▁bujiga	-9.15805
▁budi	-9.15809
▁rohit	-9.15817
▁mv	-9.1584
▁seat	-9.15895
▁kakunda	-9.15917
fore	-9.16097
▁times	-9.16242
▁chepadu	-9.16278
▁bata	-9.16318
▁eli	-9.16396
▁que	-9.16527
▁sad	-9.16615
sai	-9.16914
▁evar	-9.1711
14	-9.17171
▁ite	-9.17492
▁original	-9.17718
▁ipl	-9.17729
▁jafa	-9.17755
▁janasena	-9.17794
▁kakapote	-9.17805
▁rahul	-9.17821
01	-9.17979
▁dia	-9.17989
▁prajala	-9.18033
▁gudalo	-9.18047
21	-9.18052
▁kartik	-9.1806
▁kotaga	-9.1809
▁sure	-9.18116
▁helo	-9.18116
▁nvu	-9.18158
online	-9.18166
jsp	-9.18356
▁had	-9.18373
▁mater	-9.18406
kapote	-9.18691
▁teater	-9.18717
taniki	-9.18878
▁wo	-9.18921
▁tanu	-9.1902
telugu	-9.19091
esht	-9.19144
ak	-9.1916
▁vara	-9.19207
▁lol	-9.19223
▁kastam	-9.19634
46	-9.19646
▁tita	-9.19669
▁evad	-9.19687
▁views	-9.1972
leka	-9.19785
▁interval	-9.19892
▁cancel	-9.19893
▁hype	-9.19896
▁kad	-9.19897
▁conect	-9.19899
▁hemant	-9.19931
▁mare	-9.19953
▁pre	-9.19961
▁direction	-9.19982
▁vamsi	-9.1999
▁pokiri	-9.20019
▁prasad	-9.20022
▁taruvat	-9.20119
ould	-9.2012
▁rao	-9.2012
▁come	-9.20135
saru	-9.20268
lato	-9.20276
▁evariki	-9.2033
▁x	-9.20351
▁etc	-9.20361
▁kaledu	-9.20399
od	-9.2055
nch	-9.20841
ca	-9.20887
▁pati	-9.20905
zon	-9.21018
▁geta	-9.21034
▁gudu	-9.21157
▁matrame	-9.21189
▁oke	-9.21257
▁petina	-9.21303
▁ben	-9.21382
▁medi	-9.21468
news	-9.21537
nchi	-9.21622
▁tina	-9.21742
boy	-9.21857
▁chesam	-9.21928
▁dabu	-9.21937
▁ar	-9.21989
ad	-9.22019
twets	-9.2202
▁botu	-9.2205
▁atention	-9.22114
▁explanation	-9.22114
▁godzila	-9.22114
▁ivandi	-9.22124
▁decent	-9.22149
▁dance	-9.2222
▁such	-9.22237
▁sampat	-9.22274
▁ofice	-9.22282
▁ty	-9.2231
▁dubing	-9.22345
▁tfi	-9.22358
▁house	-9.22396
▁nidra	-9.224
▁okate	-9.22428
▁poye	-9.22491
▁chepadam	-9.22533
▁evado	-9.22574
▁prince	-9.22612
▁points	-9.22613
▁date	-9.22806
▁batuk	-9.23
▁question	-9.23002
tlu	-9.23055
▁chep	-9.23129
▁dis	-9.23189
ap	-9.23193
▁unav	-9.23218
▁pandi	-9.23227
▁19	-9.23247
stunadu	-9.23411
pat	-9.23416
▁rt	-9.2344
▁unta	-9.2345
▁going	-9.23479
▁hey	-9.23792
pani	-9.23801
▁ex	-9.23953
▁mani	-9.24138
▁vadini	-9.24142
▁iamnagarjuna	-9.24387
▁jatiratnalu	-9.24387
▁daridram	-9.24387
▁comeback	-9.24393
▁raviteja	-9.24398
▁serious	-9.24402
▁replie	-9.24447
▁topic	-9.24464
▁adurs	-9.24473
▁li	-9.24488
360	-9.24517
▁gatiga	-9.24526
▁doni	-9.24672
▁chudam	-9.24683
▁srh	-9.24726
▁rani	-9.24749
aina	-9.24871
▁ru	-9.24872
ist	-9.24877
▁puta	-9.24915
▁levu	-9.25221
leni	-9.25241
▁elevation	-9.25359
▁friend	-9.25398
▁bala	-9.25399
stadu	-9.25478
▁guru	-9.25502
▁lag	-9.25684
ara	-9.25716
▁sh	-9.25968
▁ilane	-9.26011
ground	-9.26064
▁kati	-9.26211
▁teli	-9.26262
▁abo	-9.26269
▁rod	-9.26442
▁pain	-9.26468
▁con	-9.26494
shank	-9.26542
▁kane	-9.26671
▁plot	-9.26724
▁mental	-9.26747
▁pete	-9.26772
▁old	-9.26809
▁road	-9.26838
sk	-9.26842
▁kutalo	-9.26847
▁edaina	-9.26854
▁hint	-9.26884
▁moga	-9.2694
▁prof	-9.26952
tan	-9.26983
▁self	-9.27063
▁uday	-9.27172
▁vishnu	-9.27183
▁ichadu	-9.27379
nes	-9.27387
▁dp	-9.27501
▁mid	-9.27543
▁ju	-9.27715
▁pade	-9.27723
tic	-9.2773
aku	-9.27759
▁14	-9.27771
▁twist	-9.27798
cho	-9.27826
▁el	-9.27873
▁chosa	-9.28106
▁fi	-9.28117
▁anadam	-9.28132
17	-9.28147
▁sing	-9.28232
stu	-9.28469
▁enduk	-9.28617
▁chesukuna	-9.28626
▁unadi	-9.29007
▁moham	-9.29093
▁recent	-9.29124
▁fix	-9.29135
03	-9.29166
▁chedy	-9.29209
▁side	-9.29235
▁cheyatam	-9.2925
▁srinivas	-9.2927
▁venky	-9.29284
▁2021	-9.29519
▁emaina	-9.29522
▁petukoni	-9.2954
star	-9.29561
▁cho	-9.29626
▁vedio	-9.29637
▁telisi	-9.29702
tara	-9.2975
▁handle	-9.29785
▁konta	-9.29817
▁petadu	-9.29873
▁gi	-9.29891
▁ley	-9.29934
▁dash	-9.2996
▁daya	-9.29963
▁emana	-9.3011
▁record	-9.30169
▁ivala	-9.30194
36	-9.302
▁kosame	-9.30373
▁noting	-9.30441
▁45	-9.3048
fer	-9.30538
▁harsha	-9.30541
udu	-9.30568
ati	-9.30587
▁her	-9.30598
▁apa	-9.30796
▁chei	-9.31085
▁tagi	-9.31145
babu	-9.31283
kosam	-9.31325
tadi	-9.31331
skoni	-9.31353
16	-9.31381
▁subscribe	-9.31416
▁zo	-9.31428
▁hospital	-9.31533
▁prashant	-9.31533
▁close	-9.31535
▁murder	-9.31535
▁daily	-9.31536
▁sugar	-9.31547
▁aranya	-9.31561
▁dark	-9.31563
▁kind	-9.31615
▁cheyakunda	-9.31635
▁tamudu	-9.31661
ise	-9.31761
▁varu	-9.31787
▁comon	-9.31801
▁actualy	-9.31831
▁rcb	-9.3184
sukun	-9.31871
▁antene	-9.31981
▁jala	-9.32103
▁sodi	-9.32104
▁dengey	-9.32152
laga	-9.32191
▁kot	-9.32271
lni	-9.32291
▁dan	-9.32431
taredy	-9.32482
▁papu	-9.32534
▁create	-9.32569
▁tri	-9.32667
▁bagi	-9.33004
▁gud	-9.33019
▁madi	-9.33051
▁yem	-9.33099
pinch	-9.33149
karam	-9.33162
hu	-9.33368
▁final	-9.33518
▁paduko	-9.33769
▁busines	-9.34033
▁request	-9.34033
▁vacine	-9.34033
▁lockdown	-9.34033
▁talent	-9.34034
▁stuf	-9.34035
▁promotion	-9.34062
▁task	-9.34079
▁released	-9.34121
hit	-9.34145
nce	-9.34164
ban	-9.34194
▁munde	-9.34215
▁babai	-9.34314
▁enka	-9.34325
▁fav	-9.34413
▁hours	-9.34432
▁yang	-9.34435
▁chestam	-9.34444
31	-9.34458
▁shoting	-9.34541
mar	-9.34791
89	-9.34879
▁ami	-9.34935
▁tose	-9.35025
▁mins	-9.35048
▁kukalu	-9.35262
ul	-9.35457
chara	-9.3546
▁bandi	-9.35539
▁avadam	-9.35616
▁chestav	-9.35689
▁odu	-9.35731
▁dil	-9.35762
▁sonta	-9.35768
▁vese	-9.35993
tledu	-9.36001
27	-9.36198
ksha	-9.36295
▁bigbos	-9.36588
▁acept	-9.36597
▁chiranjevi	-9.36597
▁underated	-9.36597
▁strong	-9.36597
▁notification	-9.36612
▁defend	-9.36627
▁hindu	-9.3668
▁avinash	-9.36747
▁down	-9.36793
▁adugu	-9.36839
▁evaro	-9.36867
▁13	-9.36922
▁chesukun	-9.36927
▁carer	-9.36953
tulu	-9.37039
▁while	-9.37082
84	-9.37134
▁icharu	-9.37146
▁unsubscribe	-9.37171
▁done	-9.37173
▁naka	-9.37317
▁petaru	-9.37401
▁bura	-9.37534
vs	-9.37577
dar	-9.37898
▁40	-9.37919
▁darling	-9.37956
▁santosh	-9.37967
zom	-9.38077
unte	-9.38383
▁gopa	-9.38508
▁90	-9.38566
▁kodi	-9.38724
krishna	-9.38827
ler	-9.38903
▁anatu	-9.38939
rt	-9.39155
▁decision	-9.39228
▁exact	-9.39228
▁higligt	-9.39228
▁tisisdsp	-9.39228
▁maharshi	-9.39228
▁creations	-9.3923
▁musugu	-9.39233
▁hatre	-9.39233
▁lanjiki	-9.39233
▁proud	-9.39246
▁raha	-9.39256
▁telustundi	-9.39273
▁vizag	-9.39311
anu	-9.39326
▁nachaledu	-9.39339
▁chudochu	-9.3934
▁avtundi	-9.39342
jit	-9.39362
▁2019	-9.39366
▁van	-9.39388
▁anukunte	-9.39406
kada	-9.39437
▁suresh	-9.39629
yandi	-9.39636
▁bar	-9.39643
▁dub	-9.39772
▁coming	-9.3987
▁ochi	-9.40014
▁care	-9.40019
ish	-9.40025
▁moka	-9.40059
aya	-9.4041
patiki	-9.40419
▁nama	-9.40545
yali	-9.40585
ochu	-9.40645
tar	-9.40666
▁pl	-9.40931
▁rate	-9.41142
76	-9.41209
nadu	-9.41306
edi	-9.41329
▁odi	-9.41334
▁gue	-9.41418
duku	-9.41439
▁disapoint	-9.41488
▁labour	-9.41931
▁schol	-9.41932
▁rply	-9.41932
▁svc	-9.41936
▁avpl	-9.41943
▁gurunchi	-9.41944
▁social	-9.41963
▁plus	-9.41963
▁vilain	-9.41988
▁credit	-9.41991
nodu	-9.42006
▁sakshi	-9.42055
koni	-9.42069
▁eka	-9.42101
▁sense	-9.42152
▁interesting	-9.42171
▁peaks	-9.42176
kudadu	-9.4218
▁pedt	-9.42184
▁ista	-9.4219
▁rebel	-9.42191
▁tarun	-9.42249
▁nedi	-9.42329
tunte	-9.4262
dini	-9.42677
▁peka	-9.42697
▁chudale	-9.42705
kuna	-9.42805
▁chedam	-9.42816
▁unayi	-9.42825
hari	-9.42834
ik	-9.42991
ud	-9.43065
▁producer	-9.43352
▁era	-9.43355
kan	-9.43463
▁siva	-9.43625
▁sm	-9.43737
▁fun	-9.43882
▁ara	-9.43902
▁gap	-9.43962
ah	-9.43992
ent	-9.44149
▁titi	-9.44242
▁avadu	-9.4433
▁para	-9.44362
▁likes	-9.44383
inchi	-9.44443
▁nadi	-9.44474
undi	-9.44597
ian	-9.44692
▁quote	-9.44709
▁mimalni	-9.44709
▁build	-9.4471
▁amazing	-9.44711
▁ladies	-9.44712
▁veru	-9.44724
▁buster	-9.44729
▁shaw	-9.44741
▁kohli	-9.44796
▁ati	-9.44838
▁vundali	-9.44861
▁buda	-9.44891
▁anipistundi	-9.44895
▁denge	-9.44896
▁figts	-9.44946
▁tenet	-9.45039
▁untai	-9.45402
▁once	-9.45415
▁ri	-9.45432
▁saying	-9.45557
▁save	-9.45593
▁poyindi	-9.45645
▁dm	-9.45727
▁kavala	-9.45846
▁kotadu	-9.45966
▁dev	-9.46107
ata	-9.46158
▁ticket	-9.46218
▁paniki	-9.4626
▁chestara	-9.4627
▁vesina	-9.46552
ntu	-9.46555
▁gane	-9.46671
▁ea	-9.46756
▁pres	-9.46945
▁teda	-9.4697
olywod	-9.47054
▁giv	-9.47076
▁disaster	-9.47269
aga	-9.47452
59	-9.47525
oxygen	-9.47566
▁government	-9.47566
▁lafot	-9.47566
▁normal	-9.47566
▁entertainment	-9.47568
▁nameisnani	-9.47573
▁wow	-9.47629
▁yeah	-9.47675
▁yenduku	-9.47707
trs	-9.47709
mas	-9.47713
▁vuntadi	-9.47726
▁karma	-9.47782
▁visuals	-9.47785
▁cheptaru	-9.47983
cult	-9.48258
▁eag	-9.48271
▁chesinatu	-9.48308
▁kodukulu	-9.48463
▁chepuko	-9.48491
▁nahi	-9.48528
▁id	-9.48551
▁die	-9.48631
▁ivadam	-9.48638
▁suny	-9.48726
▁prakash	-9.48727
kunta	-9.48873
▁daka	-9.49029
▁eripuk	-9.49121
▁vesta	-9.49282
▁sub	-9.49289
▁bol	-9.49306
▁rada	-9.4931
▁tesko	-9.49409
▁cheka	-9.49411
▁lokesh	-9.49424
▁ano	-9.49463
▁manesh	-9.49469
remo	-9.496
danta	-9.49661
▁salar	-9.49696
30	-9.49737
rao	-9.49783
▁cheyaku	-9.49808
varma	-9.49894
▁ek	-9.49913
▁padu	-9.49915
▁vu	-9.49994
▁ipati	-9.50113
▁interest	-9.50262
▁joke	-9.50278
▁avu	-9.50323
▁23	-9.50416
▁redemption	-9.50507
▁arustundi	-9.50509
▁ariyana	-9.5051
▁everyone	-9.5052
▁literal	-9.50543
▁fater	-9.50559
▁decide	-9.5056
▁kopam	-9.50573
▁reality	-9.50597
▁expresion	-9.50652
▁gadni	-9.50659
▁sandep	-9.50665
▁gola	-9.50686
▁style	-9.50735
▁avudi	-9.50743
▁pat	-9.50768
▁chepaledu	-9.5081
▁lucky	-9.50821
▁chodu	-9.50823
▁being	-9.50937
poindi	-9.50948
▁cheptadu	-9.50968
▁doraka	-9.50987
▁adugutuna	-9.51009
▁rota	-9.51056
▁chepindi	-9.51089
▁yenta	-9.51176
▁uter	-9.51227
gam	-9.51285
▁st	-9.51291
▁matlade	-9.51305
jo	-9.51388
iki	-9.51408
▁were	-9.51519
tala	-9.51634
▁lot	-9.51669
▁chestey	-9.51721
▁teju	-9.51735
kuni	-9.51753
▁icha	-9.51866
esadu	-9.51972
▁lage	-9.5219
▁leader	-9.5228
▁chesedi	-9.52318
▁mean	-9.52339
▁gaji	-9.52379
▁bajana	-9.52439
port	-9.52439
▁san	-9.52472
▁vachay	-9.52473
kadu	-9.52643
prince	-9.52864
▁avasaram	-9.52993
▁join	-9.53061
bai	-9.53157
ley	-9.53236
▁lanjakoduku	-9.5326
▁seing	-9.5335
▁came	-9.53382
▁trends	-9.53489
▁matladutunav	-9.53495
▁petukun	-9.53511
▁suces	-9.53524
deverakonda	-9.53537
▁narendramodi	-9.53537
▁repeat	-9.53537
▁vishayam	-9.53537
▁fdfs	-9.53538
▁gosebumps	-9.53538
▁mistake	-9.53538
▁dantlo	-9.53538
▁number	-9.53547
▁mesage	-9.53549
▁futur	-9.53552
▁anyway	-9.53555
▁chus	-9.53569
▁mytri	-9.53602
▁dsp	-9.53607
▁420	-9.53659
▁minutes	-9.53728
▁ilage	-9.53733
▁manasu	-9.53751
▁ramcharan	-9.53896
▁dear	-9.53909
▁jan	-9.53931
▁avasarama	-9.54086
▁elago	-9.54112
▁z	-9.54212
▁vari	-9.5426
▁katalu	-9.54265
▁emotions	-9.5428
▁pota	-9.54313
▁gadivi	-9.5436
mous	-9.54459
▁boma	-9.54533
dala	-9.54545
▁alari	-9.54588
▁bit	-9.54621
▁sk	-9.54889
▁tickets	-9.55004
▁boku	-9.55074
▁adaga	-9.55143
▁inkoka	-9.55327
▁vilu	-9.55379
▁dengu	-9.55432
▁teaters	-9.55475
▁nana	-9.55516
▁cheskun	-9.55534
▁ayadu	-9.55539
▁maheshbabu	-9.55768
05	-9.5605
ker	-9.5611
erly	-9.5611
▁prajal	-9.56118
▁antadu	-9.5612
▁ragu	-9.56144
que	-9.56166
china	-9.56217
▁migata	-9.56345
▁teste	-9.56464
▁let	-9.56477
▁antu	-9.5661
▁states	-9.56643
chadu	-9.56658
▁crores	-9.56662
▁anushka	-9.56663
▁setupati	-9.56663
▁shankar	-9.56663
▁black	-9.56663
▁kerty	-9.56664
▁cricket	-9.56665
naidu	-9.56667
▁pedite	-9.56668
▁endukante	-9.56671
▁sunday	-9.56674
▁vadilesi	-9.5671
▁idaru	-9.56727
▁gitu	-9.56798
▁trust	-9.56842
▁nekenduku	-9.56881
▁teatres	-9.56888
▁chudaledu	-9.57015
▁neke	-9.57024
liz	-9.57032
▁unay	-9.57053
▁ivani	-9.57095
▁wort	-9.57111
▁netulu	-9.57112
pdu	-9.5712
▁darunam	-9.5719
mision	-9.57214
▁bt	-9.57223
ari	-9.57346
▁pandu	-9.5741
▁puri	-9.57605
▁low	-9.57651
▁putina	-9.57763
atitude	-9.5781
▁kuta	-9.5782
▁les	-9.57937
cm	-9.57957
tudu	-9.5798
▁ge	-9.58178
charan	-9.58384
▁apude	-9.58426
▁endo	-9.58517
kapoyina	-9.58539
pad	-9.58633
nav	-9.58792
▁nakenduk	-9.58873
▁12	-9.5891
most	-9.58991
▁sp	-9.59005
▁insta	-9.59191
kalyan	-9.59224
▁chustu	-9.59327
varaku	-9.59382
▁speak	-9.59394
▁blod	-9.59437
▁toug	-9.59471
▁hear	-9.59513
pot	-9.59696
sri	-9.59753
ps	-9.59836
▁hbd	-9.59867
▁present	-9.59875
▁biryani	-9.59888
▁fanbase	-9.59888
▁few	-9.59889
▁paruvu	-9.59889
▁srekaram	-9.59897
▁rom	-9.5991
▁rmovie	-9.59932
▁writing	-9.59944
▁warior	-9.59967
▁quality	-9.60007
▁fod	-9.60016
▁rowdy	-9.60046
prabas	-9.60057
▁swet	-9.60079
▁continue	-9.60083
▁chusuko	-9.60095
adf	-9.60106
▁avaledu	-9.60148
▁petadam	-9.60216
▁deat	-9.60217
▁ysrcp	-9.60234
▁except	-9.60264
▁chesey	-9.60412
▁police	-9.60423
our	-9.60432
▁bago	-9.60472
▁petandi	-9.60518
▁saram	-9.60565
▁gore	-9.60713
▁car	-9.60755
▁ground	-9.6086
▁undo	-9.60997
▁padite	-9.61037
789	-9.61046
pam	-9.61141
tiki	-9.61452
vada	-9.61489
valani	-9.61519
ngi	-9.61582
gan	-9.61647
naban	-9.61786
▁tiya	-9.61877
▁bw	-9.62186
mana	-9.62199
▁avta	-9.62201
▁nya	-9.6237
▁racha	-9.62396
▁gudi	-9.62461
▁kick	-9.62478
▁chy	-9.62508
vishnu	-9.62554
vadiki	-9.62554
▁nene	-9.62624
nc	-9.62731
emo	-9.62735
ure	-9.62772
▁lagi	-9.62823
shety	-9.63004
▁pay	-9.63026
▁air	-9.63099
fe	-9.63124
▁react	-9.63152
▁updates	-9.632
▁definite	-9.63221
▁especialy	-9.63221
▁impact	-9.63221
▁korean	-9.63222
▁believe	-9.63222
▁honest	-9.63223
▁suden	-9.63224
▁someone	-9.63242
▁admin	-9.63248
▁vilage	-9.63251
▁baguntadi	-9.63281
▁nolan	-9.63282
▁gundu	-9.6329
▁could	-9.63331
▁praven	-9.63369
▁stay	-9.63385
puri	-9.63396
▁box	-9.63397
▁watchable	-9.63418
▁chud	-9.63429
▁hats	-9.6344
▁winer	-9.63448
oda	-9.63534
▁virat	-9.6355
▁ichavga	-9.6357
86	-9.6363
▁ivale	-9.6365
▁members	-9.63658
▁nakodaka	-9.63745
▁bet	-9.6376
▁raledu	-9.63813
▁rana	-9.63826
▁mix	-9.63869
▁til	-9.63883
art	-9.63887
chav	-9.639
▁insan	-9.64028
ava	-9.64102
▁kulam	-9.64163
▁whole	-9.64193
▁sainat	-9.64255
▁entr	-9.64255
▁chepaku	-9.64258
▁tapi	-9.64301
▁chesara	-9.64327
704	-9.64374
▁podu	-9.64593
▁paisal	-9.64609
▁monts	-9.64674
▁kona	-9.64676
▁jana	-9.64744
▁sre	-9.64868
sey	-9.6489
▁vasta	-9.64964
▁avuta	-9.64996
nche	-9.65022
▁fl	-9.6507
▁records	-9.65124
▁gr	-9.65149
04	-9.65173
▁nek	-9.65182
65	-9.65285
vochu	-9.65313
▁lead	-9.65316
▁colection	-9.65328
▁ag	-9.6537
▁cheda	-9.65464
yrs	-9.6557
▁twetz	-9.65711
▁aj	-9.65746
▁ucha	-9.65757
rela	-9.65817
res	-9.65893
▁bey	-9.65929
▁mg	-9.65997
var	-9.66028
aluarjun	-9.66049
▁mont	-9.66087
▁kat	-9.66118
▁var	-9.66197
▁ts	-9.66219
▁tesukuna	-9.6626
kunte	-9.66269
▁sar	-9.664
▁buji	-9.66459
▁untay	-9.66656
▁ysr	-9.66657
▁captain	-9.66666
▁bahubali	-9.6667
▁sambandam	-9.6667
▁ysrcparty	-9.6667
▁group	-9.6667
▁minister	-9.6667
▁craze	-9.6667
▁track	-9.66671
▁control	-9.66672
sindi	-9.66674
73	-9.66677
holic	-9.66681
▁sunil	-9.66692
▁apreciate	-9.66694
▁justice	-9.6672
▁lick	-9.66727
▁brain	-9.6674
▁vakel	-9.66791
▁student	-9.66825
▁kal	-9.66828
idi	-9.66903
▁murali	-9.66908
uku	-9.66914
▁howle	-9.66957
rani	-9.66967
pada	-9.67008
▁naki	-9.67018
avu	-9.67128
▁chandra	-9.67179
▁fact	-9.67207
▁tier	-9.67217
▁taga	-9.67246
▁drugs	-9.67274
▁boli	-9.67298
▁ilantivi	-9.67308
▁bacha	-9.67352
stundi	-9.67393
43	-9.67442
▁ashok	-9.67513
▁naga	-9.67523
▁promote	-9.67529
▁leru	-9.67533
▁vasu	-9.67691
29	-9.67743
▁varma	-9.67838
▁vad	-9.67865
▁mau	-9.67897
▁com	-9.67943
▁ending	-9.6817
▁banu	-9.68204
▁sara	-9.68235
▁shows	-9.68267
ate	-9.68342
▁patuko	-9.68461
pet	-9.6855
▁meme	-9.68652
tri	-9.6873
inda	-9.68759
▁poni	-9.68791
▁hm	-9.688
▁tum	-9.68802
har	-9.68919
monal	-9.69044
kant	-9.69102
▁rajesh	-9.69104
▁mvi	-9.69215
▁bang	-9.69234
▁vag	-9.69299
stunav	-9.69556
▁sye	-9.69592
vela	-9.69641
▁chapa	-9.69825
▁minga	-9.69826
vr	-9.7019
adam	-9.7023
▁tirigi	-9.70243
▁satyadev	-9.70243
▁psycho	-9.70243
▁akineni	-9.70244
▁kabate	-9.70248
▁nizam	-9.7025
▁inspiration	-9.70265
▁sur	-9.70302
▁report	-9.70314
▁chudakunda	-9.7034
▁morphs	-9.70367
▁csk	-9.70382
▁ph	-9.70436
▁far	-9.70508
▁vesaru	-9.70518
▁move	-9.7063
▁smile	-9.7065
▁musal	-9.70684
▁pm	-9.70733
▁subscribers	-9.70808
▁train	-9.70845
▁2020	-9.70846
▁ajay	-9.70887
▁writer	-9.70918
▁dobe	-9.70929
▁making	-9.7094
▁inter	-9.71041
tava	-9.7111
▁cheyadu	-9.71141
▁minchi	-9.7115
non	-9.71254
▁sepu	-9.71265
▁gelava	-9.7148
igt	-9.71596
san	-9.71801
dari	-9.71817
br	-9.71828
lanu	-9.71856
van	-9.71879
▁manaku	-9.71899
▁art	-9.72137
▁aduko	-9.72282
▁oko	-9.72356
▁petav	-9.72453
▁avali	-9.7273
▁matala	-9.72771
rko	-9.72827
▁chusava	-9.72897
▁pal	-9.72927
konda	-9.73208
una	-9.73288
moru	-9.7332
cy	-9.7333
▁loks	-9.73402
enti	-9.7361
50	-9.73648
▁host	-9.73675
trends	-9.73775
▁op	-9.73783
pur	-9.73809
ings	-9.73811
▁farm	-9.73835
ena	-9.73859
▁expres	-9.73906
▁koushik	-9.73945
▁nishabdam	-9.73945
▁yesterday	-9.73945
▁mosagalu	-9.73945
▁version	-9.73946
▁telustadi	-9.73951
▁parents	-9.73954
▁marvel	-9.73955
▁least	-9.73955
▁abuse	-9.73957
▁aditya	-9.73961
▁safe	-9.73974
▁sarileru	-9.73986
▁chupincha	-9.73991
▁gunde	-9.73993
▁scam	-9.74001
▁reveal	-9.7401
▁audio	-9.74013
▁statement	-9.74017
▁interview	-9.74017
▁naration	-9.74035
▁gift	-9.74047
df	-9.74047
cide	-9.74056
▁taste	-9.74078
▁counter	-9.7409
▁teliyadu	-9.74141
▁project	-9.74172
▁moter	-9.74203
▁hate	-9.74217
▁gopi	-9.74263
▁enduko	-9.74265
ushti	-9.74285
▁chandu	-9.7429
▁jery	-9.74318
rula	-9.74329
▁emundi	-9.74403
▁vundadu	-9.74467
▁musukon	-9.74468
▁pet	-9.74519
▁pradep	-9.74592
▁covering	-9.74612
▁itz	-9.74699
456	-9.74717
▁expected	-9.74784
▁frnds	-9.74911
▁area	-9.74956
▁istav	-9.74977
▁guy	-9.74993
▁etla	-9.75024
▁tym	-9.75118
▁kotina	-9.75164
▁mark	-9.75173
laku	-9.75271
40	-9.75448
▁site	-9.75499
▁ayaka	-9.75539
▁tesuko	-9.75589
▁avani	-9.75743
▁deka	-9.75773
▁valato	-9.75945
ence	-9.76048
▁cheptav	-9.76161
▁fal	-9.76215
she	-9.76399
▁kaya	-9.76413
garu	-9.76526
▁lite	-9.76598
sagar	-9.76599
▁venkat	-9.76649
69	-9.76675
bad	-9.76681
▁age	-9.76687
▁pkadmire	-9.7671
inchukun	-9.76752
▁eva	-9.76763
▁vera	-9.76767
sukoni	-9.76794
▁twi	-9.76801
▁retwet	-9.7698
putina	-9.77119
▁pari	-9.77143
ant	-9.77188
▁vila	-9.77205
▁doing	-9.77224
stam	-9.77293
▁24	-9.77296
ble	-9.77303
ous	-9.7737
▁deba	-9.77402
pali	-9.77409
▁bali	-9.7745
▁vesukun	-9.77472
▁chapu	-9.77607
▁itu	-9.77738
▁patu	-9.77747
rini	-9.77747
▁imvkohli	-9.77791
▁favourite	-9.77794
▁wife	-9.77797
▁result	-9.77814
▁cros	-9.77826
▁nayana	-9.77836
▁lady	-9.77837
▁btw	-9.77853
▁natural	-9.77859
▁warner	-9.77859
ze	-9.77861
▁wise	-9.77872
▁human	-9.7791
▁cheyochu	-9.77923
▁istunav	-9.77925
▁vuntundi	-9.77933
▁janma	-9.77951
▁godava	-9.77962
dget	-9.77999
▁dir	-9.78023
▁chepadaniki	-9.78024
▁mon	-9.78026
▁ave	-9.78026
araju	-9.78088
mafia	-9.78121
▁dude	-9.78127
▁telusa	-9.78141
▁belam	-9.7817
49	-9.78209
prim	-9.78401
▁anil	-9.78559
▁nijamga	-9.78622
39	-9.7865
▁iya	-9.7865
▁tak	-9.78657
fans	-9.78666
▁vunaru	-9.78671
▁vastuna	-9.78688
▁bra	-9.78877
son	-9.78912
sadu	-9.78995
▁tesukun	-9.79068
▁cri	-9.79177
▁ivali	-9.79368
▁adiga	-9.79375
▁sami	-9.79449
▁sun	-9.79455
▁mising	-9.79488
▁vachinatu	-9.79537
▁ayaru	-9.79542
▁aja	-9.79594
lover	-9.79635
tanam	-9.79639
▁rs	-9.79656
kadiki	-9.79706
ntey	-9.7975
▁anukuntuna	-9.79764
charu	-9.79848
▁santoshs	-9.79861
▁kajal	-9.79898
▁yevar	-9.7993
▁dep	-9.80052
▁fr	-9.80136
▁tata	-9.80138
▁andar	-9.80184
kuntuna	-9.80413
▁centr	-9.80446
▁chilarga	-9.80554
▁lover	-9.80588
▁bayam	-9.80979
talu	-9.81106
sanjay	-9.81108
pradep	-9.81113
cham	-9.81167
surya	-9.81178
coming	-9.81247
vam	-9.8131
▁legend	-9.81388
▁chat	-9.81396
▁nijame	-9.81415
gs	-9.81433
80	-9.81477
ber	-9.81513
▁okadi	-9.81618
▁bagane	-9.81674
▁spoil	-9.8168
▁rk	-9.81682
▁past	-9.81784
▁confirm	-9.81791
▁knowledge	-9.81791
▁komarambemntr	-9.81791
▁status	-9.81791
▁karnataka	-9.81791
▁mutual	-9.81791
▁baguntundi	-9.81792
▁example	-9.81794
▁purijagan	-9.81794
▁lyrics	-9.81797
▁dlm	-9.81798
▁tarwat	-9.81798
▁beaut	-9.81801
▁vintage	-9.81806
▁venkatesh	-9.81811
▁subraman	-9.81816
▁kontamandi	-9.81831
▁ligt	-9.81834
▁suli	-9.81855
▁cheyakandi	-9.81937
▁lekunte	-9.81944
▁chustunte	-9.81951
▁fu	-9.81986
▁puchakaya	-9.82032
ton	-9.82038
▁vesadu	-9.82134
▁daba	-9.82174
▁vestaru	-9.82177
mbfan	-9.82239
▁atidi	-9.82249
▁devuda	-9.8227
▁comp	-9.82319
▁chavu	-9.82335
▁enjoyed	-9.82402
▁ledante	-9.82402
▁nachadu	-9.82422
▁chap	-9.82437
wi	-9.82448
▁vachadu	-9.82458
▁aur	-9.82462
▁chepedi	-9.82524
▁telugulo	-9.82606
▁gues	-9.82639
▁ede	-9.827
▁unapudu	-9.82703
epudo	-9.82741
evaru	-9.83025
kapoina	-9.83115
stan	-9.83247
▁dog	-9.83271
▁chestunara	-9.83291
▁mod	-9.83306
ante	-9.83323
▁sout	-9.83438
▁eripuku	-9.83442
▁mat	-9.83488
▁q	-9.83527
▁sto	-9.83567
▁ravu	-9.83606
90	-9.83712
▁tom	-9.83741
gar	-9.83789
▁nachina	-9.83979
▁amani	-9.84024
pro	-9.84027
▁vini	-9.84164
▁kon	-9.8418
wen	-9.84181
▁ak	-9.84201
▁katna	-9.84203
lante	-9.84231
214	-9.84395
▁arun	-9.84491
leru	-9.8462
▁sugestion	-9.84664
▁vachu	-9.84725
▁istadu	-9.84826
▁devi	-9.84887
time	-9.8492
rk	-9.84932
▁antava	-9.84967
▁nam	-9.85199
▁bagu	-9.85208
▁kale	-9.85225
▁hok	-9.85234
telangana	-9.85286
2021	-9.85315
music	-9.85333
▁tisi	-9.85493
▁anime	-9.85571
ayi	-9.85625
over	-9.85728
ice	-9.85896
▁janala	-9.859
▁vesuko	-9.85952
▁diference	-9.85958
▁download	-9.85958
▁important	-9.85958
▁kaburlu	-9.85958
▁platform	-9.85958
▁reject	-9.85958
▁corupt	-9.85958
▁simply	-9.85958
▁colege	-9.85958
▁anavasaram	-9.85958
▁sankanakandi	-9.85958
▁score	-9.85959
▁women	-9.85961
▁kastapadi	-9.85968
bisa	-9.8597
▁nakoduku	-9.8597
▁hurt	-9.85988
▁step	-9.85995
▁production	-9.85998
▁minimu	-9.86002
▁magic	-9.86004
97	-9.86032
▁chudachu	-9.86062
▁jevitam	-9.86067
▁folowers	-9.86078
▁undochu	-9.86092
▁bagundedi	-9.86126
▁manoj	-9.86177
▁sec	-9.86182
▁asking	-9.86345
▁pure	-9.86352
▁bonda	-9.86353
▁meaning	-9.86363
uturi	-9.86372
▁rule	-9.86427
aniki	-9.86435
▁joker	-9.86512
▁adigina	-9.86561
▁chose	-9.86596
47	-9.86648
back	-9.86686
▁ih	-9.86695
love	-9.86743
▁chupi	-9.86893
▁gel	-9.8693
con	-9.86971
▁okay	-9.87066
▁navi	-9.87069
▁met	-9.87152
▁mised	-9.87195
▁vesa	-9.87223
ntaru	-9.8723
▁hair	-9.8731
▁gur	-9.87447
naru	-9.87468
fc	-9.87818
bala	-9.87823
▁dengite	-9.87852
▁esari	-9.87874
▁yar	-9.87993
▁vele	-9.87994
▁rest	-9.88023
▁anipinch	-9.88105
▁ayo	-9.88117
▁vidi	-9.88416
▁twists	-9.88422
81	-9.88624
▁young	-9.88675
ot	-9.88748
70	-9.88825
▁tine	-9.89028
72	-9.89036
and	-9.89136
gr	-9.89285
▁nacha	-9.89385
▁gid	-9.89444
ravi	-9.89472
▁shar	-9.89671
use	-9.89723
▁actual	-9.89775
▁nidrapo	-9.89818
▁lepi	-9.89863
▁wi	-9.89889
just	-9.89963
chindi	-9.90054
▁listen	-9.90077
kapo	-9.90106
podi	-9.90164
▁chesavu	-9.90207
▁celeb	-9.90248
▁ninja	-9.90251
os	-9.90257
▁wonder	-9.90293
▁babulakebabu	-9.90305
▁comparison	-9.90306
▁confiden	-9.90306
▁jarigina	-9.90306
▁penguin	-9.90306
▁analysis	-9.90306
▁clean	-9.90307
▁blind	-9.90307
▁april	-9.90307
▁early	-9.9031
▁adigite	-9.90311
▁hapen	-9.90313
▁yaswant	-9.90314
▁local	-9.90318
▁anyone	-9.90326
▁anamata	-9.90328
▁andrapradesh	-9.90352
▁teliya	-9.90354
▁lepa	-9.9036
▁nandamuri	-9.90366
▁atadu	-9.904
▁inkem	-9.90411
▁tirupati	-9.90412
▁tears	-9.90417
▁kavalante	-9.90425
▁led	-9.90425
▁ari	-9.90495
▁msg	-9.90518
▁matladite	-9.90545
▁teliyani	-9.90575
▁pacha	-9.90582
▁samanta	-9.90591
▁vikram	-9.90616
▁army	-9.90628
▁chaitu	-9.90646
ukuna	-9.90652
pista	-9.90669
▁movierulz	-9.90696
dara	-9.90712
vaka	-9.9076
▁yepudu	-9.90764
▁veskun	-9.9078
▁gang	-9.90792
▁intiki	-9.9085
▁potundi	-9.90908
▁kotali	-9.91022
paper	-9.91206
▁chestunte	-9.91232
▁ivi	-9.91322
▁sat	-9.91366
anga	-9.91369
▁mor	-9.91423
▁ep	-9.9144
▁child	-9.91528
▁kote	-9.91575
poyindi	-9.91578
▁tesaru	-9.91582
▁cheyala	-9.91702
▁vunta	-9.91717
▁chal	-9.91761
sih	-9.91815
patlo	-9.91944
▁madam	-9.91949
lt	-9.92026
▁este	-9.92138
▁petukuna	-9.92163
sara	-9.92164
▁sid	-9.92219
stey	-9.92306
▁br	-9.92405
dep	-9.9244
▁ochina	-9.92735
▁rale	-9.92843
▁vinay	-9.92923
▁muka	-9.9301
▁cup	-9.93097
▁07	-9.93164
giri	-9.93235
▁chusav	-9.9324
▁tej	-9.93345
▁chil	-9.9335
vani	-9.93382
▁lanj	-9.93575
▁note	-9.93591
▁ladu	-9.93604
utundi	-9.93636
▁pela	-9.93639
▁sui	-9.93703
▁vk	-9.93716
▁mava	-9.93863
self	-9.93904
puram	-9.93973
▁esi	-9.9405
▁poya	-9.94072
▁pink	-9.94143
▁andukey	-9.94558
▁noru	-9.9458
esav	-9.9459
vijay	-9.94608
▁trilers	-9.94665
▁abadal	-9.94724
atam	-9.94778
▁unt	-9.94818
▁perform	-9.94848
▁congratulations	-9.94851
▁telegram	-9.94851
▁guntur	-9.94851
▁involve	-9.94851
▁latkor	-9.94851
▁article	-9.94852
▁arvind	-9.94852
▁blowing	-9.94852
▁netaji	-9.94854
congres	-9.94857
▁hotstar	-9.94858
▁gurinche	-9.94859
▁vishal	-9.94862
wan	-9.94862
▁healt	-9.94864
▁development	-9.94869
▁devudu	-9.94869
▁colour	-9.94872
▁indulo	-9.94876
▁treat	-9.94884
▁payment	-9.94888
▁rishi	-9.94898
▁market	-9.94901
▁gururs	-9.94909
▁huge	-9.94916
▁order	-9.94931
▁maybe	-9.94937
▁bavundi	-9.94944
▁evi	-9.94957
▁itey	-9.94963
▁matladutunaru	-9.94985
ikada	-9.95049
▁150	-9.95098
▁srajamouli	-9.95108
▁basha	-9.95122
▁fine	-9.9514
▁yenti	-9.95204
▁cake	-9.95223
▁superstar	-9.95226
▁moment	-9.95231
▁chudadam	-9.95247
▁bomi	-9.95257
▁body	-9.95292
▁istaru	-9.95314
▁viewer	-9.9545
▁rip	-9.95479
▁dagar	-9.95481
▁poja	-9.95527
▁antunadu	-9.95543
▁eripuka	-9.95646
▁exams	-9.95658
▁vinu	-9.95711
▁chosta	-9.95864
▁asla	-9.95937
▁telsi	-9.96074
▁respons	-9.96121
▁talking	-9.96167
54	-9.96181
▁yedo	-9.96183
key	-9.96184
▁sc	-9.96192
▁kadupu	-9.96444
oter	-9.96647
▁ramesh	-9.96648
min	-9.96683
▁diku	-9.96705
▁nerchuko	-9.96712
oba	-9.96723
yna	-9.96752
▁epati	-9.96812
▁md	-9.96852
▁ms	-9.96964
▁kalam	-9.97053
tilo	-9.97056
▁nik	-9.97111
hal	-9.97151
▁ganta	-9.97167
▁alaga	-9.97182
der	-9.97207
▁yo	-9.9737
vadi	-9.97403
nama	-9.97516
▁aita	-9.97594
▁hor	-9.97747
▁muskon	-9.97833
▁prema	-9.97864
▁yele	-9.97865
▁bg	-9.97871
ding	-9.97872
keli	-9.97888
pal	-9.97912
▁ze	-9.9796
cent	-9.98104
▁vochi	-9.98254
▁lev	-9.98297
▁artist	-9.98316
▁bye	-9.98338
▁isue	-9.98377
yan	-9.98443
▁mingi	-9.98547
tv	-9.98574
aba	-9.98699
kr	-9.98731
▁test	-9.98814
▁nija	-9.98896
▁patinchuko	-9.98951
▁dad	-9.98983
2020	-9.98988
yearsfor	-9.98989
tor	-9.99021
chery	-9.99055
▁sava	-9.99117
▁vd	-9.99265
▁hum	-9.9928
▁amo	-9.99323
▁write	-9.99327
chowdary	-9.99344
▁touch	-9.99383
▁yash	-9.99557
▁atani	-9.9957
▁abntelugutv	-9.99613
▁consider	-9.99613
▁pandemic	-9.99613
▁target	-9.99613
▁unexpected	-9.99613
▁absolute	-9.99613
▁bowling	-9.99613
▁indirect	-9.99614
▁anipistadi	-9.99615
▁dream	-9.99615
▁warning	-9.99616
▁mogudu	-9.9962
▁sidart	-9.9962
▁rangde	-9.99622
▁combo	-9.99641
▁ysj	-9.99697
▁kalipi	-9.99724
▁litle	-9.99736
strict	-9.99758
▁suit	-9.99766
▁ventan	-9.99777
by	-9.99791
pak	-9.99817
twod	-9.99823
▁gautam	-9.99855
▁tax	-9.99906
▁mast	-9.99911
poyaru	-9.99913
▁madavan	-9.99936
suko	-9.99945
▁ivaledu	-9.99945
▁stre	-9.99974
▁ochindi	-9.99976
▁lowda	-10.0004
rage	-10.0005
▁cheptunaru	-10.0015
▁sidu	-10.0016
udah	-10.0019
each	-10.0021
▁padesi	-10.0022
chedi	-10.0029
▁nikil	-10.0032
▁emaind	-10.0036
arak	-10.004
▁chop	-10.0041
▁tadam	-10.0044
▁lost	-10.0045
▁based	-10.0048
▁editing	-10.0054
▁puti	-10.0063
▁bokalo	-10.007
af	-10.0072
▁aypo	-10.0082
▁mera	-10.0098
ties	-10.0105
igest	-10.0106
▁meke	-10.012
▁item	-10.0126
▁adam	-10.0131
tej	-10.0137
405	-10.0138
▁given	-10.0143
varam	-10.0147
▁pen	-10.0152
▁cheskuna	-10.0154
kuntunaru	-10.0154
sham	-10.0162
▁chusaru	-10.0164
indian	-10.0168
▁gua	-10.0176
▁idiot	-10.0176
amba	-10.0179
▁bil	-10.0179
▁kuch	-10.0179
▁means	-10.0188
▁atla	-10.0194
ista	-10.02
▁jr	-10.0203
teja	-10.0207
▁dini	-10.022
das	-10.0221
entra	-10.024
▁yak	-10.0245
▁calm	-10.025
stadi	-10.0253
▁kare	-10.0261
ndam	-10.0262
▁143	-10.0264
▁pedta	-10.0265
madu	-10.0268
odka	-10.0269
ance	-10.0271
nj	-10.0294
▁sonu	-10.0295
mohan	-10.0304
gina	-10.0306
ash	-10.0307
▁opuko	-10.0311
▁anadi	-10.0316
▁ayinda	-10.0318
▁tech	-10.0321
▁tre	-10.0331
▁ego	-10.0341
▁languages	-10.0356
▁inti	-10.0364
ple	-10.0364
▁ori	-10.0381
hr	-10.0386
satish	-10.0393
kartik	-10.0394
▁eno	-10.0396
▁mosa	-10.0402
83	-10.0404
93	-10.0408
par	-10.0412
▁dengina	-10.0421
▁amuko	-10.0422
ntadu	-10.0427
▁osta	-10.0433
tuku	-10.044
uda	-10.0452
▁into	-10.0456
▁mam	-10.046
▁dedication	-10.0461
▁similar	-10.0461
▁shock	-10.0461
▁position	-10.0461
▁dislike	-10.0461
▁frank	-10.0461
▁veshalu	-10.0461
▁portiga	-10.0461
▁decode	-10.0461
▁gogle	-10.0462
▁trivikram	-10.0462
▁separat	-10.0462
▁sister	-10.0464
vado	-10.0464
▁lengt	-10.0464
▁atack	-10.0468
▁crct	-10.0468
▁luck	-10.0468
▁talaiva	-10.0468
anjali	-10.0469
▁batike	-10.0469
▁sound	-10.0469
▁telusuko	-10.047
▁sriman	-10.047
devote	-10.0472
▁cheyachu	-10.0475
▁color	-10.0476
▁national	-10.0477
▁parutu	-10.0478
▁teri	-10.0479
▁debate	-10.0481
▁laki	-10.0484
▁ankuna	-10.0484
▁nbk	-10.0485
▁badulu	-10.0486
▁kodakalara	-10.0487
▁aitey	-10.0495
▁vastaru	-10.0498
▁vadni	-10.0501
▁nela	-10.0506
▁kishore	-10.0512
▁rul	-10.0515
▁choste	-10.0516
▁fb	-10.0518
▁kirak	-10.0522
▁vunde	-10.0522
▁chepale	-10.0538
▁ore	-10.0542
▁ber	-10.0543
▁wig	-10.0544
▁chesanu	-10.0547
▁vj	-10.0548
▁untayi	-10.0557
▁soul	-10.0563
▁odipo	-10.0563
welcome	-10.0568
▁qui	-10.0577
▁ayedi	-10.0581
▁kavu	-10.0585
▁cheyaru	-10.0586
▁dul	-10.059
▁vunadu	-10.0593
▁varun	-10.0603
▁plant	-10.0604
▁kak	-10.0604
▁potu	-10.0625
way	-10.0634
fanism	-10.0644
▁raya	-10.0645
▁tini	-10.0645
▁nako	-10.0651
▁eda	-10.0655
vale	-10.0656
▁adukun	-10.0657
▁yr	-10.0659
▁chetu	-10.0663
vasu	-10.0665
smi	-10.0667
▁opi	-10.0668
uk	-10.0669
▁batukulu	-10.0673
▁ledo	-10.0676
▁bagundu	-10.0678
▁cry	-10.0693
smb	-10.0694
▁undaru	-10.0698
▁valadi	-10.0699
▁tagu	-10.0711
▁kulu	-10.0713
▁band	-10.0739
▁saka	-10.074
▁odipoya	-10.0747
▁leak	-10.0767
praba	-10.0783
▁den	-10.0802
95	-10.0808
tarakian	-10.0818
▁kotinch	-10.0819
▁heros	-10.0819
▁lekapotey	-10.0831
▁head	-10.0839
▁award	-10.0849
raja	-10.0852
▁cheyu	-10.0853
▁velta	-10.0854
side	-10.0854
▁frnd	-10.0859
nikil	-10.086
▁prem	-10.0861
▁avaru	-10.0861
ladu	-10.0863
▁roles	-10.0867
▁dobi	-10.0869
▁hela	-10.0871
▁mak	-10.0876
▁kotu	-10.0878
▁vachesa	-10.088
tro	-10.0884
▁dur	-10.0885
▁201	-10.0889
▁akade	-10.0898
▁od	-10.0906
▁nameis	-10.0913
▁venu	-10.0919
house	-10.0922
arila	-10.0924
▁orang	-10.0926
▁bare	-10.0927
write	-10.093
▁dora	-10.0935
▁verey	-10.0935
krish	-10.0936
▁dube	-10.0936
▁wor	-10.0947
rajamouli	-10.0958
▁kotuko	-10.0968
▁rahe	-10.0969
▁reasons	-10.0974
▁untada	-10.0982
▁judge	-10.0985
chinta	-10.0986
▁biscuit	-10.0988
▁cinematography	-10.0988
▁jarutunte	-10.0988
▁overaction	-10.0988
▁talapaty	-10.0988
▁company	-10.0988
▁postpone	-10.0988
▁john	-10.0988
▁remain	-10.0988
▁album	-10.0988
▁mirchi	-10.0988
▁tread	-10.0989
▁anudep	-10.0989
▁pakodi	-10.099
▁shashank	-10.0991
▁sanasi	-10.0991
▁nakaite	-10.0992
▁cuny	-10.0993
▁clasic	-10.0994
▁ravana	-10.0994
▁alavatu	-10.0995
▁samp	-10.0996
▁become	-10.0996
▁chintu	-10.0996
▁heigt	-10.0998
▁ktr	-10.1001
▁efect	-10.1004
▁saha	-10.1005
▁crazy	-10.1008
▁chudatam	-10.1009
▁lavada	-10.1014
▁sekar	-10.1017
▁akuva	-10.1021
▁untu	-10.1021
▁sanju	-10.1022
▁leki	-10.1028
nasanam	-10.103
▁avtadi	-10.1031
▁matlad	-10.1034
kaleja	-10.1035
▁vestadu	-10.1042
▁kartikeya	-10.1043
▁yevadu	-10.1045
▁card	-10.1051
▁vesko	-10.1058
▁farmer	-10.1063
▁bratukulu	-10.1067
▁chesukoni	-10.1071
nolu	-10.1087
▁suka	-10.1087
▁damunte	-10.1087
▁jaye	-10.109
▁jaya	-10.1104
poyina	-10.1104
▁eng	-10.1109
▁bots	-10.1115
▁chustam	-10.1121
priya	-10.1124
tayi	-10.1128
kenduku	-10.113
balu	-10.1132
fes	-10.1137
▁isues	-10.1144
▁deserve	-10.1153
mbcult	-10.1175
▁dari	-10.1179
inche	-10.1185
sena	-10.1186
▁centre	-10.1188
▁pin	-10.1189
▁meting	-10.119
kondi	-10.1193
▁esta	-10.1196
▁bati	-10.1202
▁hide	-10.1217
election	-10.1218
▁titina	-10.1226
▁manes	-10.1236
▁pras	-10.1239
▁select	-10.1241
▁chusam	-10.1246
▁dec	-10.1255
▁nge	-10.1257
▁sin	-10.1259
ver	-10.1261
▁shit	-10.1283
dame	-10.1285
▁80	-10.1287
▁rev	-10.1294
ions	-10.1299
94	-10.1301
▁sem	-10.1325
oz	-10.1335
▁vunai	-10.1336
vakunda	-10.1355
▁chaduvu	-10.1358
▁hd	-10.1358
kala	-10.136
kunadu	-10.1361
eyandi	-10.1361
▁matladi	-10.1363
▁vadidi	-10.1368
▁denguta	-10.1369
▁kanipincha	-10.1375
▁mode	-10.1382
▁ayitey	-10.1383
175	-10.1395
▁yu	-10.1398
puka	-10.1409
▁emotion	-10.141
▁reviewer	-10.1412
▁mad	-10.1452
pawan	-10.1459
▁chestunam	-10.1463
▁unatu	-10.147
▁natu	-10.1471
▁posts	-10.1476
suresh	-10.1477
guta	-10.1479
lsina	-10.1492
▁jaga	-10.1498
girl	-10.151
now	-10.1513
jan	-10.1517
ado	-10.1522
▁cheskunta	-10.1524
▁vali	-10.1526
▁untav	-10.1533
▁edupu	-10.1534
▁major	-10.1539
▁information	-10.1543
▁jagrata	-10.1543
▁janamanasena	-10.1543
▁subject	-10.1543
▁ultimate	-10.1543
▁impres	-10.1543
▁doctor	-10.1543
▁acharya	-10.1543
▁finish	-10.1543
▁maintain	-10.1543
▁wekend	-10.1543
▁dinesh	-10.1543
▁spech	-10.1544
▁lanjodka	-10.1544
▁pulihor	-10.1544
▁bruh	-10.1544
▁suspense	-10.1544
kalyanbabu	-10.1545
▁pampa	-10.1545
▁forgot	-10.1545
▁aipoindi	-10.1546
▁chandan	-10.1547
▁tokalo	-10.1547
▁prakaram	-10.1547
▁active	-10.1548
▁generat	-10.1548
▁kachita	-10.1548
▁laug	-10.155
▁baby	-10.155
▁ayipoyindi	-10.1552
▁twara	-10.1554
▁pranam	-10.1556
▁chepalante	-10.1556
▁sashi	-10.1556
▁mask	-10.1557
▁krish	-10.1557
▁vesukunaru	-10.1559
▁analedu	-10.1559
wars	-10.156
▁search	-10.1561
▁wishes	-10.1562
▁bagunte	-10.1564
▁chaitanya	-10.1565
▁antaga	-10.1566
▁hyderabad	-10.1569
▁royal	-10.1572
▁puvu	-10.1574
▁vestunaru	-10.1574
vel	-10.1575
▁sped	-10.1577
▁woman	-10.1582
▁avutaru	-10.1582
unda	-10.1584
▁rakunda	-10.1587
yadu	-10.1587
bday	-10.1591
▁camera	-10.1594
▁decade	-10.1594
▁kya	-10.1595
▁swag	-10.16
835	-10.16
dan	-10.1603
▁juga	-10.1607
▁ivakunda	-10.1607
▁madu	-10.161
▁120	-10.161
▁chestundi	-10.1611
▁orange	-10.1615
▁kotadam	-10.1619
▁hrs	-10.1622
▁paiga	-10.1624
▁land	-10.1635
▁nandu	-10.1648
▁satish	-10.165
▁bank	-10.1651
▁cheyincha	-10.1654
▁langa	-10.1655
▁pri	-10.1662
▁chesava	-10.1673
kuntaru	-10.1673
▁chanels	-10.169
▁dengadu	-10.1699
▁pukulo	-10.17
▁tisko	-10.1705
ale	-10.1705
liki	-10.1708
▁hahaha	-10.1711
▁chaka	-10.1716
▁namaka	-10.1727
▁velaki	-10.1731
▁kashtam	-10.1731
▁jadi	-10.1733
▁bow	-10.1735
▁value	-10.174
▁vadiley	-10.1741
▁hal	-10.1747
▁yeri	-10.1749
aledu	-10.1765
▁vachai	-10.1767
▁kosama	-10.1771
▁ravadam	-10.1773
▁chustey	-10.1777
▁sav	-10.1781
▁amarav	-10.1782
▁ocha	-10.1797
ease	-10.18
▁leaders	-10.18
▁tintu	-10.1802
▁kotaru	-10.1804
vadaniki	-10.1818
▁ant	-10.1824
maharaja	-10.1824
vari	-10.1825
denti	-10.1832
▁log	-10.1832
wada	-10.1839
▁sala	-10.1845
▁dam	-10.185
▁used	-10.185
▁panikira	-10.1857
▁jab	-10.1858
ela	-10.188
▁mudu	-10.189
▁chea	-10.1892
▁untam	-10.1912
▁baguna	-10.1912
lor	-10.1919
movie	-10.1921
▁vadila	-10.1922
▁kam	-10.1924
▁ask	-10.1941
▁istunaru	-10.1944
glad	-10.1947
▁vodi	-10.1954
▁bed	-10.1956
▁telisina	-10.1959
▁baba	-10.1961
dem	-10.197
79	-10.1971
todu	-10.1975
▁gade	-10.1976
▁yet	-10.1977
▁cute	-10.198
▁teskun	-10.1981
▁matladina	-10.1981
ren	-10.1989
edev	-10.1998
▁anand	-10.2
▁matur	-10.2
esaru	-10.2004
▁suporting	-10.201
▁ofl	-10.2014
▁kapa	-10.2029
▁solo	-10.2039
▁naina	-10.2046
lal	-10.205
led	-10.2061
police	-10.2064
palem	-10.2066
▁avutuna	-10.2077
▁cheku	-10.2082
▁danda	-10.2093
▁sarkar	-10.2095
▁excite	-10.21
▁pili	-10.2101
▁saripo	-10.2102
sagari	-10.2102
▁60	-10.2105
▁abai	-10.2106
aro	-10.2111
▁lose	-10.2114
▁drive	-10.2116
▁puli	-10.2119
▁yedu	-10.2122
▁kapu	-10.2126
▁proper	-10.213
▁recomend	-10.2131
▁devarakonda	-10.2131
▁ignore	-10.2131
▁itslavanya	-10.2131
▁mskajalagarwal	-10.2131
▁pandugadicult	-10.2131
▁satisfied	-10.2131
▁snyder	-10.2131
▁trspartyonline	-10.2131
▁america	-10.2131
▁sequel	-10.2131
▁general	-10.2131
▁limit	-10.2131
▁extraordinary	-10.2132
▁scheme	-10.2132
▁oscar	-10.2132
▁gupta	-10.2132
▁catch	-10.2132
▁hamaya	-10.2132
▁vaishnav	-10.2132
▁yekuva	-10.2132
▁msdoni	-10.2132
▁leave	-10.2133
▁kerala	-10.2133
▁option	-10.2133
▁tevran	-10.2134
▁fuck	-10.2135
▁extra	-10.2135
▁rajendra	-10.2136
▁mamalni	-10.2136
▁praja	-10.2138
▁megastar	-10.2139
▁respond	-10.2141
▁piracy	-10.2142
▁everyting	-10.2143
▁anyting	-10.2144
▁else	-10.2145
▁gold	-10.2148
▁veyandi	-10.2149
▁kud	-10.215
▁indaka	-10.2157
▁koratala	-10.2159
▁mamul	-10.2159
▁mowa	-10.2159
▁vamo	-10.2159
▁punch	-10.2162
▁nachite	-10.2166
▁manolu	-10.217
▁boby	-10.2174
▁godavalu	-10.2174
▁192	-10.2181
▁stars	-10.2181
danki	-10.2184
fied	-10.2191
kante	-10.2192
▁penta	-10.2196
▁arya	-10.2197
rish	-10.2199
▁bles	-10.2202
▁mukyam	-10.2202
▁chesinapudu	-10.2205
chegu	-10.221
▁chustaru	-10.2213
▁cheskondi	-10.222
▁dorik	-10.2221
▁put	-10.2222
▁nami	-10.2226
▁chudala	-10.2227
▁70	-10.2232
▁chotl	-10.2234
▁cuting	-10.224
endi	-10.2246
▁venaka	-10.2264
▁bagunda	-10.2269
▁ter	-10.2269
▁renu	-10.2269
▁vodu	-10.227
smile	-10.2272
▁naidu	-10.2274
▁laja	-10.2274
tal	-10.2275
▁pakaki	-10.2276
▁edva	-10.2277
▁anukun	-10.2286
▁forever	-10.2292
▁vine	-10.2295
▁sih	-10.2299
yudu	-10.2307
chand	-10.231
kuda	-10.2314
▁pant	-10.232
▁started	-10.2323
▁undandi	-10.2327
▁vilan	-10.233
diri	-10.2331
▁sugestions	-10.2333
ude	-10.2336
pata	-10.2349
▁estunaru	-10.2356
▁sachin	-10.2366
stondi	-10.2367
▁venkata	-10.2376
▁cheyani	-10.2378
maina	-10.238
▁ustad	-10.2384
wat	-10.239
▁data	-10.2391
▁amuku	-10.2392
▁weak	-10.2393
▁kudu	-10.2397
▁aipo	-10.2409
prabu	-10.2417
▁kanapad	-10.2421
▁kukala	-10.2421
▁chepana	-10.2434
▁vidu	-10.2436
▁bul	-10.2441
chukuna	-10.245
yadam	-10.2456
apudu	-10.2471
cate	-10.2487
▁chepava	-10.2489
▁etu	-10.2504
▁force	-10.2505
pas	-10.2505
▁tadi	-10.251
▁praba	-10.2517
pota	-10.2518
▁evadai	-10.2523
▁chepara	-10.2523
ugu	-10.2532
▁nalugu	-10.2535
▁cap	-10.2544
dom	-10.2544
▁pina	-10.2544
film	-10.2547
▁chimp	-10.2558
padi	-10.2568
▁vai	-10.2569
▁ntv	-10.257
▁istu	-10.2572
▁nave	-10.2576
▁suda	-10.2578
▁cheyaka	-10.2582
guram	-10.2586
car	-10.2591
forever	-10.2592
▁ipud	-10.2592
▁pampi	-10.2594
▁shyam	-10.2607
zero	-10.261
▁lock	-10.2613
ction	-10.2617
▁manchidi	-10.2618
▁nel	-10.2627
nr	-10.2635
▁yuva	-10.2637
years	-10.2652
41	-10.2657
ster	-10.2658
▁edits	-10.2659
▁mal	-10.2674
net	-10.2676
▁bir	-10.2677
▁nachi	-10.268
▁releas	-10.2683
eswar	-10.2687
▁negativ	-10.2689
buny	-10.2691
▁cheydam	-10.2692
venkat	-10.2693
fact	-10.2694
▁ayipo	-10.2697
wal	-10.2698
ysrcp	-10.2701
chow	-10.2703
rock	-10.2709
▁tape	-10.2719
ick	-10.2721
nigt	-10.2725
▁aney	-10.2726
▁eye	-10.2727
▁jer	-10.2735
▁abd	-10.2737
mer	-10.2744
▁stam	-10.2745
▁cl	-10.2746
▁za	-10.2747
ramcharan	-10.2748
life	-10.2748
404	-10.2749
▁mahi	-10.2751
▁oposit	-10.2753
▁introvert	-10.2756
▁nagababuofl	-10.2756
▁vyshnavi	-10.2756
▁winstonxavier	-10.2756
▁regular	-10.2756
▁society	-10.2756
▁lanjakoduka	-10.2756
▁eforts	-10.2756
▁jarigind	-10.2756
▁region	-10.2756
▁kaburu	-10.2757
▁uncle	-10.2757
▁banget	-10.2757
▁chalenge	-10.2757
▁ranjit	-10.2757
▁anipichindi	-10.2757
▁element	-10.2757
▁revant	-10.2757
▁tevram	-10.2757
▁soft	-10.2757
▁truly	-10.2757
▁management	-10.2758
▁actres	-10.2759
▁relate	-10.2759
▁rcbtwets	-10.2759
▁percent	-10.276
▁design	-10.276
▁telisinde	-10.2761
nunchi	-10.2763
▁candidate	-10.2763
▁entante	-10.2765
▁vachinatlu	-10.2765
▁rj	-10.2765
corn	-10.2765
▁degra	-10.2765
▁genre	-10.2766
▁league	-10.2768
▁champa	-10.2768
▁discusion	-10.2769
▁reaction	-10.277
board	-10.2771
▁pulka	-10.2771
▁country	-10.2772
▁hapybirtday	-10.2772
▁srikant	-10.2775
▁rojula	-10.2776
▁doubl	-10.2778
▁apesi	-10.2779
▁rocking	-10.278
kavita	-10.2781
▁vani	-10.2782
arma	-10.2783
▁veltaru	-10.2784
▁antunte	-10.2789
▁intro	-10.2789
▁janalaki	-10.279
ater	-10.2791
▁2024	-10.2794
▁telisindi	-10.2799
▁rich	-10.2799
▁korukuntuna	-10.28
frebie	-10.2802
▁frst	-10.2804
max	-10.2811
▁bargav	-10.2813
▁hitman	-10.2818
▁avtadu	-10.2819
▁ananu	-10.2824
▁cheyalo	-10.2826
▁avnu	-10.2828
valo	-10.2832
▁darm	-10.2835
ntamandi	-10.2835
▁putav	-10.2849
▁avale	-10.285
▁velte	-10.2851
▁apud	-10.2851
▁sairam	-10.2852
▁kor	-10.2858
▁manu	-10.2861
▁inken	-10.2863
wo	-10.2864
▁movi	-10.2865
▁anukune	-10.2865
▁bating	-10.2882
▁vedam	-10.2883
▁suku	-10.2885
▁sanjay	-10.2886
▁anali	-10.289
▁oters	-10.2891
▁parts	-10.2893
▁vinta	-10.2905
arn	-10.2906
tunai	-10.2907
▁lep	-10.2915
tali	-10.2916
▁ichindi	-10.2922
taro	-10.2923
▁eyes	-10.2958
▁competiti	-10.2962
mr	-10.2964
▁tone	-10.2967
alsindi	-10.2968
valaki	-10.2976
▁dept	-10.2997
napude	-10.2998
▁evara	-10.2999
▁okapudu	-10.3001
▁vadala	-10.3019
dante	-10.3031
▁eskun	-10.3034
▁chava	-10.3036
▁mire	-10.304
▁ravali	-10.3045
wana	-10.3051
▁vro	-10.3058
▁under	-10.3062
▁teng	-10.3068
▁chepaka	-10.3073
▁producers	-10.3081
5678	-10.3088
▁chupista	-10.3093
▁opinions	-10.3096
▁tinta	-10.3108
▁cheyaman	-10.3109
▁param	-10.3122
▁oche	-10.3124
692	-10.3126
▁matladtuna	-10.3131
vadini	-10.3131
views	-10.3134
▁gen	-10.3134
▁kanapada	-10.3141
▁nga	-10.3144
▁yevari	-10.3155
▁bataka	-10.3156
▁modalu	-10.3159
chukoni	-10.3162
▁tota	-10.3175
▁petam	-10.3176
▁poyina	-10.3186
▁yemi	-10.3193
▁pake	-10.321
▁elaga	-10.3221
▁bava	-10.3223
kunaru	-10.323
▁tesina	-10.3239
▁nayak	-10.3246
kado	-10.3249
kovali	-10.3272
▁vachav	-10.3279
▁manda	-10.3284
wit	-10.3285
▁chepukuntuna	-10.3287
ukoni	-10.3293
▁gut	-10.3294
▁qu	-10.33
raz	-10.3309
ham	-10.3314
▁chela	-10.3316
▁cher	-10.3319
▁form	-10.3324
▁yendi	-10.3331
▁undav	-10.3333
wards	-10.3338
polishety	-10.3353
▁inspire	-10.3354
kartikeya	-10.3354
rebel	-10.3355
prasad	-10.3355
vinay	-10.3364
▁mur	-10.3369
▁nka	-10.3376
pinchindi	-10.3378
nma	-10.3383
▁unit	-10.3391
▁failed	-10.3399
▁telivi	-10.3401
▁tit	-10.3404
tado	-10.3409
gical	-10.3415
▁nachala	-10.3415
kishore	-10.3416
▁nve	-10.3418
▁develop	-10.342
▁anilravipudi	-10.3423
▁fantastic	-10.3423
▁iliterate	-10.3423
▁observe	-10.3423
▁paristiti	-10.3423
▁politician	-10.3423
▁remember	-10.3423
▁somuveraju	-10.3423
▁stupid	-10.3423
▁unfolow	-10.3423
boxofice	-10.3423
▁inteligen	-10.3423
▁journey	-10.3423
▁speling	-10.3423
▁alochana	-10.3423
▁bratike	-10.3423
▁bumchikb	-10.3423
▁rajput	-10.3423
▁smugl	-10.3423
▁shruti	-10.3423
▁aunty	-10.3423
▁secret	-10.3423
▁demand	-10.3424
▁tiger	-10.3424
▁failure	-10.3424
▁bongu	-10.3424
▁vinod	-10.3424
▁timing	-10.3424
▁ibandi	-10.3424
▁degara	-10.3425
▁gelicha	-10.3425
▁kerti	-10.3425
▁akrama	-10.3425
▁vintunte	-10.3425
▁lazy	-10.3426
▁debut	-10.3426
▁religion	-10.3427
sultan	-10.3428
▁lopala	-10.3428
▁kavatledu	-10.3429
▁manushulu	-10.343
▁minus	-10.343
▁lyt	-10.343
▁adangi	-10.3431
▁shashi	-10.3432
▁blue	-10.3433
▁sigundali	-10.3436
▁tidutuna	-10.3437
▁veyadam	-10.3438
▁tension	-10.344
▁viswa	-10.3441
▁find	-10.3442
▁chesinanduku	-10.3443
rom	-10.3445
▁naluguru	-10.3445
▁untado	-10.3448
▁kodu	-10.3448
▁yekada	-10.345
▁prasant	-10.345
ratna	-10.3452
▁vel	-10.3452
▁home	-10.3453
banyak	-10.3455
▁vundedi	-10.3456
▁return	-10.3459
▁nort	-10.346
▁chpu	-10.346
analyst	-10.3463
▁fanatic	-10.3466
▁rhe	-10.347
▁ikade	-10.347
tunavu	-10.347
▁atanu	-10.3474
▁sriram	-10.3476
▁nachale	-10.3477
▁cheyalani	-10.3477
▁alochist	-10.3479
▁gorelu	-10.3481
bandar	-10.3481
kot	-10.3484
ead	-10.3485
▁kwa	-10.3492
▁flops	-10.3498
▁avtaru	-10.3499
▁buri	-10.35
▁wat	-10.3503
▁abn	-10.3508
▁cheptunadu	-10.351
▁chup	-10.3515
sanu	-10.3519
▁jali	-10.3523
▁details	-10.3525
▁rade	-10.3538
▁chinu	-10.3543
▁01	-10.3543
▁seri	-10.3544
arona	-10.3553
▁buz	-10.3555
▁bri	-10.3557
▁hot	-10.3558
▁funy	-10.3559
▁equal	-10.3562
▁vinte	-10.3564
having	-10.357
cket	-10.3577
▁sharma	-10.3585
povachu	-10.3594
evadiki	-10.3595
▁priya	-10.3597
utunaru	-10.3608
▁cheyava	-10.3611
nki	-10.3613
rch	-10.3627
▁gula	-10.3637
▁shame	-10.3638
▁migt	-10.3647
▁bakt	-10.365
one	-10.3662
▁ney	-10.3664
▁rules	-10.3664
▁pagal	-10.3667
▁dobu	-10.3674
▁adadu	-10.3677
▁ramana	-10.3689
▁estaru	-10.3689
▁evu	-10.3692
▁sal	-10.3711
▁tisuko	-10.3712
▁kum	-10.3712
lesi	-10.3725
▁karna	-10.3726
▁chest	-10.3732
▁kab	-10.3736
rohit	-10.3738
▁josh	-10.3742
say	-10.3744
lies	-10.3747
▁tika	-10.3752
▁roy	-10.3753
kiran	-10.3769
▁babo	-10.3771
dali	-10.3778
323	-10.3782
dtv	-10.3798
▁await	-10.3804
evaraina	-10.3813
▁abe	-10.3818
▁law	-10.3822
eshwar	-10.3839
▁py	-10.3839
▁hater	-10.3846
bot	-10.3847
peta	-10.3849
▁questions	-10.3851
▁anavu	-10.3858
ntra	-10.3865
▁bavi	-10.3866
▁epud	-10.3871
▁nach	-10.3879
▁chustav	-10.3885
▁nti	-10.3888
▁places	-10.3891
▁gelu	-10.3894
▁ledani	-10.3895
▁und	-10.3904
▁bag	-10.3905
rade	-10.3915
fy	-10.3922
▁matladaku	-10.3924
doni	-10.3927
▁loking	-10.3928
▁padukunta	-10.3947
▁pita	-10.3954
mah	-10.3958
odiki	-10.3958
▁gose	-10.3966
▁overs	-10.3968
▁saira	-10.3972
▁nt	-10.3983
▁apt	-10.3994
▁ds	-10.4005
rig	-10.4025
▁pans	-10.4031
yindi	-10.4034
kodaka	-10.4046
▁bud	-10.405
ganaga	-10.4054
chan	-10.4056
▁kupa	-10.4059
atp	-10.4065
▁chesar	-10.4068
jayant	-10.4069
body	-10.4071
maheshbabu	-10.4076
▁rock	-10.4077
ayz	-10.4086
▁nijanga	-10.4104
▁sry	-10.4109
▁fri	-10.4109
▁antavu	-10.4115
75	-10.4118
lang	-10.4127
▁karchu	-10.4128
iled	-10.4129
▁fail	-10.4129
▁invest	-10.4136
▁combination	-10.4137
▁criminal	-10.4137
▁drishyam	-10.4137
▁influence	-10.4137
▁investigation	-10.4137
▁lanjodaka	-10.4137
▁nominate	-10.4137
▁previous	-10.4137
▁surprise	-10.4137
▁families	-10.4137
▁lakshmi	-10.4137
▁avengers	-10.4137
▁biased	-10.4137
▁incident	-10.4137
▁telanganacmo	-10.4137
▁amount	-10.4137
5382	-10.4137
▁sampadinch	-10.4137
▁gunapal	-10.4137
▁narasimha	-10.4137
▁troug	-10.4138
▁unique	-10.4138
▁imdb	-10.4138
▁venela	-10.4138
▁divya	-10.4138
▁jagadish	-10.4138
▁contestant	-10.4138
▁contest	-10.4138
▁info	-10.4138
▁shirt	-10.4138
▁nachakapote	-10.4139
▁rakesh	-10.4139
▁swami	-10.414
▁celebration	-10.4142
▁stage	-10.4142
▁cheyakapote	-10.4143
▁chudataniki	-10.4143
▁ramula	-10.4143
▁sufer	-10.4144
▁busy	-10.4146
mobile	-10.4148
▁four	-10.415
▁sachipo	-10.415
▁avatledu	-10.4153
▁image	-10.4154
▁swamy	-10.4156
▁cdp	-10.4157
▁cheptunte	-10.4158
▁dead	-10.417
▁ravatle	-10.4171
▁slang	-10.4172
▁chepachu	-10.4174
▁telsa	-10.4175
▁akilakineni	-10.4176
▁crying	-10.4176
▁itself	-10.4181
▁cmnt	-10.4182
▁bechara	-10.4183
▁muda	-10.4183
ravata	-10.4186
▁laksha	-10.4188
ets	-10.4189
iler	-10.4191
▁ayayi	-10.4192
▁vesukoni	-10.4193
▁fire	-10.4196
ware	-10.4197
▁lanjakodukulu	-10.4204
▁dapu	-10.4206
▁chiraku	-10.4206
▁goram	-10.421
▁profil	-10.4214
▁mamuluga	-10.4222
▁nakutunaru	-10.4222
▁agent	-10.4225
▁chepanu	-10.4229
▁smbfan	-10.4229
▁oste	-10.423
crs	-10.4232
▁yeni	-10.4234
eyadam	-10.4234
▁gariki	-10.4235
▁vp	-10.4241
▁kiled	-10.4241
▁mamata	-10.4241
▁cheyinch	-10.4242
▁shadi	-10.4248
▁mbcult	-10.4249
▁kurchun	-10.4257
make	-10.4257
▁tondara	-10.4264
kp	-10.4267
▁visa	-10.4279
rana	-10.4279
▁bida	-10.4279
▁dob	-10.4285
2014	-10.4289
▁asa	-10.4291
▁jay	-10.4291
▁char	-10.4298
▁sup	-10.4298
▁matladatam	-10.43
▁lavda	-10.4306
▁avaka	-10.4315
▁epatiki	-10.4318
▁vede	-10.432
▁matladata	-10.4321
▁pencha	-10.4325
▁fund	-10.4329
▁vastay	-10.4332
shiva	-10.4347
hitler	-10.4347
▁kiara	-10.4359
▁nake	-10.4366
▁doram	-10.4367
▁guva	-10.4369
▁kamal	-10.4375
▁cheli	-10.4377
pandi	-10.4381
rentra	-10.4389
▁usa	-10.44
▁mein	-10.4404
▁poindi	-10.4411
▁chana	-10.4415
▁chepavu	-10.4416
▁nta	-10.4425
▁awards	-10.4426
▁chand	-10.443
aiah	-10.443
eyachu	-10.4443
pude	-10.4456
tech	-10.4457
▁epic	-10.447
▁neti	-10.4471
bandla	-10.4473
▁lovers	-10.4474
▁epude	-10.448
▁asale	-10.4482
aram	-10.4483
▁opukunta	-10.4501
▁ese	-10.4505
▁ichey	-10.4508
▁zona	-10.4524
ndaya	-10.4528
▁esa	-10.453
▁amb	-10.4531
▁bagunay	-10.4533
▁panda	-10.4546
▁bio	-10.4552
▁testa	-10.4568
▁gelavale	-10.4582
▁kotukun	-10.4583
ukovali	-10.4587
▁critic	-10.4591
pinchadu	-10.4592
kuntadu	-10.46
▁priva	-10.4602
▁kamu	-10.4603
▁cp	-10.4622
▁entire	-10.4629
▁gone	-10.4634
ical	-10.464
▁sum	-10.4642
ndaru	-10.4642
▁sainik	-10.4649
new	-10.4659
ents	-10.4665
▁bari	-10.4672
▁laks	-10.4697
▁tril	-10.47
logical	-10.47
▁denges	-10.4702
▁motani	-10.4705
▁pop	-10.4714
▁oru	-10.4717
meda	-10.4717
kuntu	-10.4748
chesta	-10.475
▁tisukun	-10.4761
92	-10.4775
▁cheptu	-10.4781
▁drug	-10.4786
▁exam	-10.4791
mati	-10.4813
kovachu	-10.4818
▁esko	-10.4825
▁gelichi	-10.4827
▁insecur	-10.4838
sumant	-10.4838
bargav	-10.4838
tunam	-10.4839
soul	-10.4839
politics	-10.484
guruji	-10.484
block	-10.484
katu	-10.4854
cut	-10.4855
▁pandag	-10.4857
▁teledu	-10.486
nada	-10.4861
▁chosina	-10.4864
met	-10.4869
▁vardan	-10.4869
▁ayipoya	-10.487
▁mamulu	-10.4871
▁travel	-10.488
begar	-10.4885
▁dfms	-10.489
▁sena	-10.4893
kodam	-10.4899
▁suman	-10.4904
▁gek	-10.4907
▁briliant	-10.4907
▁certifi	-10.4907
▁conversation	-10.4907
▁favorite	-10.4907
▁lanjakdoaka	-10.4907
▁masterpiece	-10.4907
▁mbramesh	-10.4907
▁satisfy	-10.4907
▁smkoneru	-10.4907
▁instagram	-10.4907
▁posible	-10.4907
▁forward	-10.4907
▁pranayk	-10.4907
▁arogya	-10.4907
▁cenima	-10.4907
▁lovestory	-10.4907
▁president	-10.4907
▁namrata	-10.4907
▁piece	-10.4907
▁usual	-10.4907
▁introduction	-10.4907
▁iritat	-10.4907
▁forget	-10.4907
▁location	-10.4907
▁pika	-10.4907
▁frustration	-10.4907
▁sknonline	-10.4907
▁rakshasudu	-10.4907
▁sundep	-10.4908
▁aravind	-10.4908
▁turn	-10.4908
▁venupot	-10.4909
▁chepochu	-10.491
▁tandri	-10.491
▁champi	-10.491
▁gros	-10.491
▁natakal	-10.491
▁oposition	-10.4911
▁cheyakudadu	-10.4911
▁nayalu	-10.4911
▁chetakani	-10.4912
▁padukovachu	-10.4912
▁donate	-10.4913
▁kampu	-10.4913
▁nachutundi	-10.4914
▁liye	-10.4916
▁tanos	-10.4916
▁shaik	-10.4919
▁vasana	-10.492
▁rupe	-10.4922
▁yedi	-10.4922
▁dairy	-10.4926
▁fol	-10.4926
arjun	-10.4929
▁kushi	-10.4931
▁vundu	-10.4931
▁emoji	-10.494
▁desham	-10.4941
▁aspect	-10.4945
▁tedy	-10.4945
▁alot	-10.4945
▁lekuna	-10.4946
▁vuntaru	-10.4946
▁powerstar	-10.495
▁chupincharu	-10.495
▁excited	-10.495
▁akasam	-10.4952
▁srinu	-10.4953
▁patient	-10.4953
riging	-10.4958
▁wtf	-10.4958
▁veskoni	-10.4961
▁swa	-10.4964
▁titukun	-10.4965
▁anapudu	-10.4966
verse	-10.4969
▁antundi	-10.4972
▁penchi	-10.4972
▁konch	-10.4973
ventra	-10.4973
▁aw	-10.4975
▁ayav	-10.498
▁aroju	-10.498
ipoye	-10.4981
▁depak	-10.4982
▁baner	-10.4983
▁bagunai	-10.4985
▁disapointing	-10.4985
▁uma	-10.4993
▁kd	-10.4995
▁sarle	-10.4996
▁pilala	-10.4997
varaina	-10.5009
▁vaikuntapuram	-10.501
▁chesado	-10.5011
▁velali	-10.5012
490	-10.5015
▁velipo	-10.5016
▁echaru	-10.5018
▁chowdary	-10.5021
▁cost	-10.5022
▁vacharu	-10.5024
▁sex	-10.5029
▁idem	-10.5036
tunaro	-10.5044
▁compared	-10.5044
▁matladadam	-10.5046
▁spy	-10.5051
▁badri	-10.5052
▁anitiki	-10.5053
▁chery	-10.5056
▁mute	-10.5062
▁val	-10.5073
▁mom	-10.5077
▁lit	-10.5081
ative	-10.5084
dontwant	-10.5087
▁telus	-10.509
▁vunav	-10.509
▁pich	-10.5093
▁conc	-10.5095
▁chostuna	-10.5096
▁kodite	-10.5097
▁ratna	-10.5098
sap	-10.5102
▁cheskune	-10.5107
opied	-10.511
▁balu	-10.5114
▁beat	-10.512
▁rona	-10.5125
▁padina	-10.5128
▁vestuna	-10.5129
bar	-10.5132
▁artists	-10.5139
▁hain	-10.514
admirer	-10.5143
▁ankunta	-10.5147
▁cheskuntu	-10.515
pb	-10.5154
▁aipoya	-10.5165
▁chedi	-10.5172
▁sati	-10.5172
▁anatam	-10.5178
team	-10.518
▁cheyara	-10.5183
▁cou	-10.5194
review	-10.521
yview	-10.5215
▁tg	-10.5218
050	-10.5219
▁andam	-10.5219
pher	-10.5234
▁tar	-10.5238
▁bond	-10.5247
row	-10.5249
legendary	-10.5258
▁tau	-10.527
▁digi	-10.5273
▁boya	-10.5277
▁gv	-10.5279
▁advan	-10.5286
daka	-10.5294
▁esina	-10.5295
▁tisis	-10.5296
▁bagunde	-10.5303
▁talks	-10.5307
nchm	-10.531
▁opu	-10.5311
▁akash	-10.5313
▁af	-10.532
▁tite	-10.5323
lekapoya	-10.5323
▁cant	-10.5329
▁dut	-10.534
ries	-10.534
▁jus	-10.5342
▁bana	-10.5347
▁modu	-10.5349
▁tumb	-10.5353
▁nund	-10.5366
▁lane	-10.5373
yati	-10.5376
084	-10.5386
▁epudai	-10.5389
▁chepincha	-10.5397
▁chos	-10.5411
chinatu	-10.5416
▁mugur	-10.5426
▁paisa	-10.5432
▁26	-10.5435
▁rahi	-10.545
▁legends	-10.5455
fx	-10.5462
▁kashta	-10.5464
▁unaya	-10.5471
▁mum	-10.5475
hasan	-10.5477
hind	-10.549
nand	-10.5495
▁har	-10.5495
▁aduguta	-10.5498
▁yadava	-10.5501
guru	-10.5504
mari	-10.5506
odar	-10.5506
evalam	-10.551
▁yi	-10.5529
twet	-10.5532
▁pedaga	-10.554
col	-10.5542
naven	-10.5547
▁mog	-10.556
tunde	-10.5563
trend	-10.5567
▁chasa	-10.557
▁opukuna	-10.5574
▁dif	-10.5578
▁leva	-10.56
▁nduk	-10.5603
▁hour	-10.5612
▁petko	-10.5615
▁nikal	-10.5617
▁paw	-10.5624
kul	-10.5627
▁veda	-10.5627
▁tip	-10.5628
▁chusesa	-10.563
▁mandu	-10.5645
▁mato	-10.5645
▁pek	-10.5653
▁ivaku	-10.5654
▁pul	-10.5658
rika	-10.5662
▁member	-10.5667
quir	-10.567
cinema	-10.5674
▁avtuna	-10.5678
▁del	-10.568
media	-10.568
▁seasons	-10.5681
▁names	-10.5687
yakunda	-10.5703
gent	-10.5707
valsina	-10.5709
▁jam	-10.5716
▁discus	-10.5723
ntav	-10.5725
▁chiti	-10.5728
▁read	-10.573
▁brataka	-10.573
inchadam	-10.573
▁basic	-10.5732
▁anounce	-10.5737
▁ananyanagala	-10.574
▁benefit	-10.574
▁bulbul	-10.574
▁charecter	-10.574
▁fabulous	-10.574
▁focus	-10.574
▁manishpandey	-10.574
▁neutral	-10.574
▁outstanding	-10.574
▁priyadarshi	-10.574
▁volunter	-10.574
▁guarante	-10.574
▁nagarjuna	-10.574
▁tomorow	-10.574
▁darshan	-10.574
▁vishyam	-10.574
▁sympat	-10.574
▁ravipudi	-10.574
▁vilian	-10.574
▁intrest	-10.574
▁maryada	-10.574
ending	-10.574
▁chadivi	-10.574
▁retire	-10.574
▁mindset	-10.574
▁panikimalin	-10.574
▁hbdmaheshbabu	-10.5741
▁rajakiya	-10.5741
▁predictable	-10.5741
▁jagadesh	-10.5741
▁ismart	-10.5741
▁migita	-10.5741
▁discount	-10.5742
▁viswanat	-10.5742
▁delhi	-10.5742
▁skip	-10.5743
▁hapybirtdayntr	-10.5743
▁vachesindi	-10.5744
kapovadam	-10.5744
▁emang	-10.5745
▁jaraga	-10.5746
▁print	-10.5747
85	-10.5748
▁chepesav	-10.575
▁chayandi	-10.5751
▁drag	-10.5755
▁comedian	-10.5755
▁spyder	-10.5756
▁cutout	-10.5756
▁murty	-10.5758
▁sep	-10.5763
▁detailing	-10.5765
▁sambar	-10.5766
▁cheyatledu	-10.5766
▁wave	-10.5767
▁kaidi	-10.5768
▁fair	-10.5772
▁peace	-10.5774
▁evandi	-10.5776
▁hj	-10.5782
▁chodali	-10.5783
▁teliste	-10.5784
▁course	-10.5786
▁sandya	-10.5786
▁edavatam	-10.5788
▁heav	-10.5793
▁bayapada	-10.5793
▁msd	-10.5794
▁dres	-10.5801
▁pampinch	-10.5812
▁chosaka	-10.5812
ofl	-10.5818
▁edchi	-10.5821
▁goran	-10.5823
▁clg	-10.5826
▁guruji	-10.5826
▁east	-10.5829
▁fro	-10.5832
▁ali	-10.5837
jagan	-10.584
▁dy	-10.5841
▁july	-10.5842
▁vesav	-10.5846
▁petali	-10.5848
▁sumant	-10.5848
▁padindi	-10.5851
▁kalalo	-10.5858
▁vedavalu	-10.5862
▁dumb	-10.5863
sarala	-10.5866
simo	-10.5867
▁anduka	-10.587
▁hasan	-10.5873
incharu	-10.5876
▁tarakian	-10.5877
▁vadili	-10.5879
▁vastai	-10.5879
▁pane	-10.588
goud	-10.5881
▁bob	-10.5884
▁blody	-10.5887
▁count	-10.5888
▁tope	-10.5892
▁iyna	-10.5892
▁anukoni	-10.59
▁kl	-10.59
▁indi	-10.5902
▁mil	-10.5904
▁anukuntaru	-10.5909
928	-10.5911
tunar	-10.5915
yata	-10.5916
▁stand	-10.5917
▁completed	-10.5922
▁padati	-10.5925
sepu	-10.5925
756	-10.593
adani	-10.5931
▁west	-10.5932
▁chustene	-10.594
▁mail	-10.5944
▁dana	-10.5948
▁bak	-10.5954
ipotaru	-10.5956
▁imo	-10.5957
▁chesinde	-10.5958
▁kotandi	-10.5962
ukondi	-10.5965
iter	-10.597
pinchina	-10.5974
58	-10.5978
▁chapav	-10.5984
▁white	-10.5988
▁trut	-10.5989
▁logo	-10.5991
yearsfors	-10.5992
chadam	-10.6005
yadaniki	-10.6012
▁chesinda	-10.6014
potunaru	-10.6015
981	-10.6026
▁meri	-10.6027
▁ratri	-10.6031
▁champe	-10.6034
270	-10.6035
▁piki	-10.6038
▁taku	-10.6039
omance	-10.6043
▁estadu	-10.6046
▁lovely	-10.6046
trp	-10.6055
view	-10.6056
▁marchipoya	-10.6057
poina	-10.6057
▁kanda	-10.6058
▁parle	-10.6058
vata	-10.6061
▁tinking	-10.6077
anto	-10.6078
▁manish	-10.6081
koka	-10.6081
497	-10.6082
▁later	-10.6088
sarat	-10.6091
ndira	-10.6096
▁sci	-10.611
▁suba	-10.6114
▁otu	-10.6122
▁cheptava	-10.6129
▁guri	-10.613
▁ivadu	-10.6135
▁gem	-10.6147
akil	-10.6152
salu	-10.6162
rden	-10.617
ineni	-10.6176
▁teskuna	-10.6182
▁dada	-10.6184
ipoya	-10.6188
days	-10.6189
▁minge	-10.6191
▁nachav	-10.6193
▁lets	-10.6198
123456	-10.6206
▁17	-10.6206
▁huk	-10.621
ung	-10.6216
▁lepes	-10.6218
▁arti	-10.6223
▁narayan	-10.6223
▁inst	-10.6225
▁cheti	-10.6232
danam	-10.6234
yochu	-10.6251
peti	-10.6256
want	-10.6257
▁dj	-10.6278
kodi	-10.6282
bil	-10.6301
▁anipinchi	-10.6306
▁unara	-10.6309
venge	-10.6309
ayina	-10.6312
▁nuvem	-10.6313
▁vagud	-10.6313
▁vado	-10.6322
▁chusey	-10.6328
▁marada	-10.6345
429	-10.6348
▁tirugutuna	-10.6349
ento	-10.6349
▁seva	-10.635
aludfm	-10.6363
▁pedutuna	-10.6363
▁ayipota	-10.6365
alsi	-10.6374
▁neha	-10.6379
▁semi	-10.6391
▁katal	-10.6411
191	-10.6414
▁saman	-10.6414
▁sata	-10.6428
▁prob	-10.643
▁potuna	-10.6441
▁kanu	-10.6442
▁patukun	-10.646
▁anipinchind	-10.6472
roju	-10.648
▁alochincha	-10.6487
▁detail	-10.6489
brand	-10.6498
▁mingey	-10.6502
▁iye	-10.6503
ship	-10.6509
▁kaha	-10.6513
rambabu	-10.6525
wel	-10.6526
vera	-10.6526
▁amaila	-10.653
tama	-10.6531
▁vintu	-10.6534
hah	-10.6534
▁anukuntu	-10.6537
ender	-10.6546
▁tse	-10.6546
tunara	-10.6554
▁padta	-10.6554
▁pare	-10.6578
kiladi	-10.6583
piste	-10.6584
point	-10.6584
santosh	-10.6585
saiteja	-10.6586
barat	-10.6586
salar	-10.6588
▁madich	-10.6595
▁subscriber	-10.6598
▁chirak	-10.6604
▁shi	-10.6616
ias	-10.6619
▁chudoch	-10.6619
▁promo	-10.6623
▁dey	-10.6624
heart	-10.6625
srinivas	-10.6629
▁confus	-10.6631
july	-10.6638
▁como	-10.664
▁colect	-10.6642
▁kaushal	-10.6649
▁congrat	-10.6649
▁ahavideoin	-10.6649
▁daugter	-10.6649
▁dominate	-10.6649
▁lanjodku	-10.6649
▁lanjoduku	-10.6649
▁maskabap	-10.6649
▁obvious	-10.6649
▁ratsasan	-10.6649
▁reference	-10.6649
▁unkalben	-10.6649
▁sunshine	-10.6649
▁julayi	-10.6649
▁pagili	-10.6649
▁venkymama	-10.6649
▁german	-10.6649
▁subscription	-10.6649
▁diwali	-10.6649
▁priyanka	-10.6649
▁website	-10.6649
▁anchor	-10.6649
▁proces	-10.6649
▁beshma	-10.6649
birtdaycdp	-10.6649
▁tesukel	-10.665
▁perigi	-10.665
▁rajinikant	-10.665
▁karanam	-10.665
▁click	-10.665
▁lanaja	-10.665
▁idariki	-10.665
▁vacinat	-10.665
▁imagin	-10.665
▁premier	-10.665
▁tugla	-10.665
▁polic	-10.665
▁flash	-10.665
▁left	-10.665
▁kompal	-10.665
▁upayogam	-10.6651
army	-10.6651
▁simha	-10.6651
▁narapa	-10.6651
▁penchu	-10.6651
1394	-10.6652
▁wonderful	-10.6652
▁replay	-10.6652
▁dilraju	-10.6653
▁iamkri	-10.6654
▁kingkalyan	-10.6654
▁cheyatle	-10.6654
▁chupinchu	-10.6655
▁entertaining	-10.6655
▁blame	-10.6656
▁svp	-10.6657
▁temper	-10.6657
▁since	-10.6658
▁okadifan	-10.6658
▁sangati	-10.6659
▁serial	-10.6659
▁prapancham	-10.6659
▁abinav	-10.6659
▁chachipo	-10.666
badi	-10.666
▁stream	-10.6661
▁suply	-10.6663
▁anusha	-10.6663
▁alek	-10.6665
▁hold	-10.6666
▁osm	-10.6668
▁cheyalsindi	-10.667
▁motion	-10.6671
▁teliyali	-10.6671
▁rakshas	-10.6674
▁ardamaind	-10.6675
▁sravan	-10.6678
vicky	-10.6678
▁traveling	-10.6681
▁legal	-10.6682
▁ratnalu	-10.6682
▁orike	-10.6682
▁kodta	-10.6683
▁mabot	-10.6684
▁vunayi	-10.6685
▁anton	-10.6685
▁bengal	-10.6685
▁ostundi	-10.6686
▁aryan	-10.6691
▁edupulu	-10.6696
▁shekar	-10.6697
▁pedtaru	-10.6699
chandra	-10.67
▁petukunaru	-10.6704
▁prajalaku	-10.6706
▁laxmi	-10.6706
▁rebelstar	-10.6709
▁tiruguta	-10.6711
▁kaval	-10.6711
▁mariage	-10.6714
▁bole	-10.6715
▁pachi	-10.6718
▁chupiste	-10.6718
▁rep	-10.6721
▁chota	-10.6721
▁abimani	-10.6721
▁rel	-10.6724
▁chepatam	-10.6726
▁namaste	-10.6729
▁bring	-10.6734
▁vastayi	-10.6734
▁andaram	-10.6735
scribe	-10.6737
▁capt	-10.6742
▁inspir	-10.6744
▁gopaga	-10.6745
▁polishety	-10.6746
▁desam	-10.6747
▁mostly	-10.6749
▁kotindi	-10.675
▁pokunda	-10.6751
▁chepinav	-10.6751
▁acha	-10.6751
▁veltuna	-10.6755
▁sily	-10.6757
▁kids	-10.676
▁vr	-10.6761
▁poina	-10.6763
down	-10.6763
▁matladandi	-10.6766
nchala	-10.6775
▁city	-10.6776
▁manchu	-10.6777
perm	-10.6777
▁nato	-10.678
▁akun	-10.6782
▁sundar	-10.6785
▁ayena	-10.6788
▁superman	-10.6792
▁jayant	-10.6792
▁spoilers	-10.6792
▁podich	-10.6794
▁nayalara	-10.6806
▁undavu	-10.6813
▁ekadi	-10.6813
▁manage	-10.6818
guda	-10.6824
▁kova	-10.6828
786	-10.6839
▁nache	-10.6843
▁wt	-10.6848
▁tapite	-10.685
▁tesadu	-10.685
▁comit	-10.6857
▁padukun	-10.6868
▁varsha	-10.6868
▁estam	-10.6872
▁nagar	-10.6874
▁65	-10.6882
win	-10.6887
▁daw	-10.6898
▁cheyam	-10.6907
▁chow	-10.6911
mber	-10.6923
▁apara	-10.693
▁cheptunava	-10.6934
▁tik	-10.6938
▁cheputo	-10.6945
ganda	-10.6948
▁maxi	-10.6953
not	-10.6962
▁balup	-10.6973
▁chosko	-10.6974
kovadam	-10.6975
▁vundo	-10.6986
▁pran	-10.6996
sab	-10.6997
▁opening	-10.6997
potundi	-10.6998
▁testaru	-10.7016
iste	-10.7024
▁exp	-10.7026
aheshbabubdaycdp	-10.7029
▁okoka	-10.703
▁fer	-10.7034
▁dogs	-10.7034
▁facts	-10.7036
▁kok	-10.7039
cop	-10.705
▁due	-10.7052
▁talku	-10.7052
▁chedu	-10.7052
▁criticis	-10.7055
▁intaku	-10.7055
arya	-10.7058
▁padukuna	-10.706
▁sony	-10.7063
▁baskar	-10.7067
▁nayam	-10.7069
ition	-10.7076
▁chestunar	-10.708
tvtelugu	-10.7082
budi	-10.7088
▁srikara	-10.7107
▁nanda	-10.7114
cultfan	-10.7118
▁stra	-10.7123
▁ediki	-10.714
▁chepala	-10.7143
yaledu	-10.7144
▁avatam	-10.7153
▁poka	-10.7155
▁ora	-10.7158
agada	-10.7172
crap	-10.7177
▁istunadu	-10.7197
▁sripad	-10.7198
▁cin	-10.7199
rip	-10.7199
ukuntam	-10.721
▁vedios	-10.7219
milion	-10.7219
▁pone	-10.7225
▁chary	-10.7238
▁09	-10.7244
▁sarat	-10.7248
▁tap	-10.7254
▁karu	-10.7267
▁matladta	-10.7291
▁matladam	-10.7309
▁jp	-10.7319
ledani	-10.7325
saho	-10.7326
▁janam	-10.7328
▁beingk	-10.7363
▁felows	-10.7381
sur	-10.7398
▁ivara	-10.7409
▁screns	-10.7409
pistundi	-10.7423
rishank	-10.7427
▁chusukun	-10.7446
▁padutuna	-10.7447
▁indians	-10.745
▁heat	-10.7452
▁chini	-10.7455
sol	-10.7462
nyt	-10.7467
▁bav	-10.7484
▁anukoku	-10.7487
▁sana	-10.7505
▁jon	-10.7519
▁tirugu	-10.7521
▁ranga	-10.7521
vadivi	-10.7525
pila	-10.7527
▁chaduv	-10.7529
▁mic	-10.7541
▁muchat	-10.755
inadfm	-10.7556
▁karo	-10.7567
▁animat	-10.7568
how	-10.757
▁leg	-10.7572
freak	-10.7577
▁mingu	-10.7582
naresh	-10.7583
▁sach	-10.7586
virat	-10.7589
vikram	-10.7589
murali	-10.7589
▁chudani	-10.759
▁eripu	-10.7596
▁narendra	-10.7613
▁ekuv	-10.7616
▁deraj	-10.763
sult	-10.7645
hariharaveramalu	-10.7649
outindiaihpokiri	-10.7649
▁establish	-10.7649
▁iamsaidaramtej	-10.7649
▁nivetatomas	-10.7649
▁rangastalam	-10.7649
▁rashmika	-10.7649
▁sequence	-10.7649
▁ynakg	-10.7649
▁hapines	-10.7649
▁muslim	-10.7649
▁replace	-10.7649
▁technical	-10.7649
▁rivew	-10.7649
▁devendra	-10.7649
▁enoug	-10.7649
▁asembl	-10.7649
▁inocent	-10.7649
▁skils	-10.7649
▁gulsh	-10.7649
▁remove	-10.7649
▁niharika	-10.7649
▁responsibilit	-10.7649
▁tupuk	-10.7649
▁rebal	-10.7649
▁template	-10.765
▁christ	-10.765
▁tricks	-10.765
▁wicket	-10.765
▁clip	-10.765
▁nxt	-10.765
▁druva	-10.765
▁found	-10.765
▁distributor	-10.765
▁function	-10.765
▁vishwa	-10.765
▁vagutunaru	-10.7651
▁interact	-10.7651
▁korcho	-10.7651
baktudu	-10.7651
▁omg	-10.7651
▁urike	-10.7651
▁tidite	-10.7651
▁patinch	-10.7651
▁bowler	-10.7651
▁95	-10.7652
▁rajini	-10.7652
▁chandrababu	-10.7652
▁techukuna	-10.7652
▁chuseyochu	-10.7652
▁investment	-10.7653
▁sruti	-10.7654
▁cheks	-10.7654
▁chesukuntunaru	-10.7657
▁neninte	-10.7657
▁realise	-10.7658
▁price	-10.766
▁charitra	-10.766
▁sahit	-10.7661
▁bagoledu	-10.7662
▁piza	-10.7663
▁digest	-10.7665
▁cheyataniki	-10.7665
▁grand	-10.7666
field	-10.7668
▁honey	-10.7668
▁eskondi	-10.7671
▁rajakeyalu	-10.7671
▁dadama	-10.7671
▁vadoka	-10.7672
▁acor	-10.7674
▁chadava	-10.7674
▁gontu	-10.7674
▁vadilesa	-10.7674
▁punya	-10.7678
▁solid	-10.7679
▁rcult	-10.768
▁drop	-10.7683
▁vivek	-10.7684
▁flam	-10.7685
▁manohar	-10.7686
▁odipoyina	-10.7686
▁trivi	-10.7689
▁kunch	-10.769
▁gili	-10.7692
▁gowtam	-10.7696
▁anipinchukun	-10.7696
▁rider	-10.7697
▁comrade	-10.7698
▁twt	-10.7698
038	-10.7699
▁chusinatu	-10.77
vardan	-10.77
▁dengutaru	-10.7701
▁burada	-10.7702
▁damn	-10.7702
▁nijangane	-10.7703
▁petaledu	-10.7707
▁sandy	-10.7707
▁kishan	-10.7712
▁ostadi	-10.7713
ben	-10.7713
6093	-10.7713
▁sign	-10.772
▁avutadi	-10.7721
▁lokam	-10.7722
stavu	-10.7723
fic	-10.7724
▁santu	-10.7725
▁avutadu	-10.7725
▁matladali	-10.7728
▁vachey	-10.7729
▁sasi	-10.7733
▁skn	-10.7735
▁tupa	-10.7737
baba	-10.7739
▁beco	-10.7739
round	-10.7741
▁vastunda	-10.7743
▁cheyanu	-10.7743
▁hayi	-10.7748
▁apey	-10.7749
iety	-10.775
▁bekar	-10.7754
▁deal	-10.7756
▁centers	-10.7762
cial	-10.7769
poyayi	-10.7772
▁baita	-10.7772
▁nitya	-10.7772
▁nashan	-10.7773
▁chesesa	-10.7774
▁undatam	-10.7778
mundu	-10.7782
irza	-10.7783
▁voka	-10.7784
▁vuntai	-10.7785
ahmed	-10.7786
pavan	-10.7788
▁rastra	-10.7793
▁velanu	-10.7795
▁phat	-10.7795
▁potadu	-10.7796
▁chedod	-10.7804
▁ganivi	-10.7805
▁avandi	-10.7806
▁eduru	-10.781
▁chudaru	-10.7812
▁pmo	-10.7813
kutunadu	-10.7814
▁noel	-10.782
kantey	-10.7822
▁dare	-10.7823
▁chepey	-10.7837
▁tidtuna	-10.7838
▁monati	-10.7838
▁kavalsin	-10.784
picha	-10.7845
▁kastalu	-10.7851
▁gabar	-10.7852
▁ayanu	-10.7853
▁participat	-10.7855
ataniki	-10.7872
zen	-10.7873
ift	-10.7877
▁event	-10.7881
▁dengutun	-10.7883
▁depu	-10.7894
▁undani	-10.7897
▁yema	-10.7899
kva	-10.7906
▁chepada	-10.7907
▁dork	-10.7915
▁yama	-10.7917
akudada	-10.7932
▁pret	-10.7932
▁dimpa	-10.794
▁navuko	-10.794
mum	-10.7946
▁rakapote	-10.7953
▁yadav	-10.7954
▁divi	-10.7954
kram	-10.7954
▁petindi	-10.7959
▁sidus	-10.796
▁heroin	-10.7971
▁maheshfan	-10.798
▁gost	-10.798
▁esav	-10.7983
▁kami	-10.8
▁adaru	-10.8013
▁veladu	-10.8023
▁batu	-10.8024
▁rajyam	-10.8031
▁aipoyi	-10.8048
102	-10.8061
▁exc	-10.8067
▁tesav	-10.8074
richaran	-10.808
▁bor	-10.8081
gula	-10.8083
▁geda	-10.8088
▁esadu	-10.809
charanism	-10.8095
▁vinet	-10.8104
▁capital	-10.8105
puku	-10.8107
▁muna	-10.812
▁ntrfan	-10.8129
▁vadike	-10.8137
riti	-10.814
▁chata	-10.8141
▁dorikind	-10.8147
245	-10.8157
rulz	-10.8179
pol	-10.8211
inchali	-10.8229
▁chusara	-10.8238
▁spr	-10.8243
▁cont	-10.8263
▁jin	-10.8264
▁adara	-10.8273
▁nke	-10.8278
▁chasta	-10.8286
▁file	-10.829
▁kantey	-10.8302
▁cheyaleka	-10.8303
daina	-10.8312
chapter	-10.8314
dge	-10.8322
▁mub	-10.8332
▁tagincha	-10.8339
inchadu	-10.8341
▁sie	-10.8344
▁chale	-10.8346
▁tab	-10.8347
▁chudalsin	-10.8358
▁pagala	-10.8367
▁tesuku	-10.8368
come	-10.8385
▁75	-10.8386
▁nachada	-10.8396
141	-10.8419
tics	-10.8438
▁vun	-10.8438
▁fil	-10.8441
▁pikale	-10.8448
▁senu	-10.8448
▁product	-10.8449
▁fo	-10.8457
▁tamu	-10.8459
▁ivd	-10.8461
wara	-10.8478
▁abdul	-10.8486
▁alochinchu	-10.849
▁apne	-10.8503
▁tuckjagadish	-10.851
▁chusu	-10.8537
▁chanipot	-10.8544
putaru	-10.8559
▁tupak	-10.8571
125	-10.8576
rgin	-10.8577
onaba	-10.8579
▁atle	-10.8586
igbo	-10.8592
▁chudalani	-10.8595
odivi	-10.8602
▁srk	-10.8603
▁karti	-10.861
▁desi	-10.8623
▁kanipist	-10.8641
▁nakem	-10.8646
▁tarv	-10.8654
▁veyincha	-10.8663
sign	-10.8678
laxmi	-10.8691
com	-10.8691
fanatic	-10.8691
rebelstar	-10.8692
avinash	-10.8693
pokiri	-10.8693
swag	-10.8694
sanju	-10.8697
pare	-10.8702
top	-10.8703
▁197	-10.8708
▁celebrit	-10.8711
▁cof	-10.8713
abimani	-10.8713
▁ragava	-10.8717
▁bom	-10.8718
▁imv	-10.8754
▁chanipoya	-10.8759
▁disturb	-10.876
▁refresh	-10.876
reatentiontopigs	-10.876
▁begining	-10.876
▁campaign	-10.876
▁casual	-10.876
▁circle	-10.876
▁daridrapu	-10.876
▁dialouge	-10.876
▁disagre	-10.876
▁engaging	-10.876
▁harikahasin	-10.876
▁karivepak	-10.876
▁poramboku	-10.876
▁prudvi	-10.876
▁subtitles	-10.876
▁symbol	-10.876
▁automatic	-10.876
▁hilarious	-10.876
▁improve	-10.876
▁ycheap	-10.876
▁chodochu	-10.876
▁vijayawada	-10.876
▁promise	-10.876
▁sujet	-10.876
▁fault	-10.876
▁kudirite	-10.876
▁pratyu	-10.876
▁recomendations	-10.876
▁vishayal	-10.876
▁tarimi	-10.876
▁cyber	-10.876
▁convey	-10.876
▁continuous	-10.876
▁violen	-10.876
▁shalini	-10.876
▁panikoche	-10.876
▁danush	-10.876
▁kushal	-10.876
▁dentlo	-10.876
▁hegde	-10.876
▁yamini	-10.8761
▁imshar	-10.8761
▁denginchukun	-10.8761
▁anilsunkara	-10.8761
▁pakistan	-10.8761
▁purti	-10.8761
▁mlc	-10.8761
▁gurtupetuko	-10.8761
▁rcfanbo	-10.8761
▁mouli	-10.8761
▁depika	-10.8761
▁energ	-10.8761
▁shrada	-10.8761
▁kidney	-10.8761
▁receiv	-10.8762
▁akshay	-10.8762
▁captaincy	-10.8762
▁dokudu	-10.8762
taramarajucharan	-10.8763
▁niveta	-10.8763
nuncho	-10.8763
▁nitish	-10.8763
▁hadura	-10.8763
▁david	-10.8763
▁abusing	-10.8763
▁predict	-10.8764
▁asahya	-10.8764
ably	-10.8764
▁geliki	-10.8764
case	-10.8765
▁nomination	-10.8766
▁chanipoyin	-10.8766
▁tyler	-10.8766
▁sucesful	-10.8766
▁shop	-10.8766
▁outside	-10.8767
ashwin	-10.8767
▁dwara	-10.8767
▁yogi	-10.8767
▁smart	-10.8768
▁surendra	-10.8768
▁sanasul	-10.8768
▁harikrishna	-10.8768
▁temple	-10.8768
▁eripok	-10.8769
▁sincere	-10.8769
▁majority	-10.8769
▁chesukovadam	-10.8769
▁sahasam	-10.877
▁grow	-10.877
▁physic	-10.877
▁vastunayi	-10.877
▁jump	-10.877
▁sange	-10.8771
cast	-10.8771
▁teliyakunda	-10.8772
▁inception	-10.8773
▁winter	-10.8773
▁adres	-10.8775
▁160	-10.8776
▁chapina	-10.8777
▁panchayat	-10.8778
▁sukumar	-10.8779
fasak	-10.8779
▁sitara	-10.8779
▁jarugutundi	-10.8779
▁section	-10.8779
▁pranit	-10.8779
▁liat	-10.8782
▁narate	-10.8783
▁melod	-10.8783
▁bagunu	-10.8784
▁veyaledu	-10.8788
iqu	-10.8788
▁saikrishna	-10.8789
▁edustunaru	-10.8791
▁bewars	-10.8792
▁barbar	-10.8794
▁manju	-10.8796
▁marpu	-10.8796
▁veyadu	-10.8796
▁pedtunav	-10.8797
▁heist	-10.8797
▁apesa	-10.8799
twit	-10.8799
▁bonding	-10.88
▁narendrana	-10.88
voraga	-10.8801
▁matladtunaru	-10.8801
▁2018	-10.8803
▁editor	-10.8803
▁likit	-10.8804
▁gelichina	-10.8807
vision	-10.8808
▁smit	-10.8809
▁yevad	-10.8809
▁triling	-10.8809
▁oct	-10.8812
▁avtunaru	-10.8815
pawank	-10.8815
▁itsme	-10.8816
▁celebrity	-10.8816
▁backup	-10.8819
▁eyana	-10.882
▁pandey	-10.882
▁wal	-10.8821
▁87	-10.8821
▁vuntadu	-10.8825
▁touching	-10.8826
habob	-10.8826
sowjanya	-10.8829
▁ratir	-10.883
▁poyadu	-10.8833
▁seper	-10.8833
▁tapakunda	-10.8834
▁notice	-10.8834
▁terus	-10.8836
▁lawda	-10.8838
▁adagali	-10.8839
▁soper	-10.884
▁patel	-10.8841
▁chapal	-10.8847
▁matald	-10.8848
▁anyayam	-10.8848
iyana	-10.8856
▁chodandi	-10.8858
nrao	-10.886
▁adatam	-10.886
▁kanchi	-10.8861
▁insecure	-10.8862
▁rakul	-10.8865
▁kiladi	-10.8867
srisri	-10.8868
▁cultfan	-10.8873
▁bike	-10.888
▁jio	-10.889
▁85	-10.8892
pkcult	-10.8895
▁fuka	-10.8896
mond	-10.8902
▁manmad	-10.8904
▁adict	-10.8908
▁lantivi	-10.8908
▁sridar	-10.8911
▁chustunaru	-10.8914
▁kuli	-10.8917
films	-10.8917
▁teyadam	-10.892
▁deals	-10.8921
▁tinu	-10.8926
▁lack	-10.8927
▁walk	-10.8932
kalam	-10.8932
▁naren	-10.8932
▁venk	-10.8936
▁petkun	-10.8938
▁saved	-10.8938
▁adigadu	-10.8939
▁vachedi	-10.8939
variki	-10.8941
▁chesinanta	-10.8942
arlie	-10.8946
▁pair	-10.8947
▁kocha	-10.8948
▁potadi	-10.8951
147	-10.8951
unuku	-10.8955
▁chesesav	-10.8955
paly	-10.8962
bakt	-10.8963
▁chupinchi	-10.8967
ltarakian	-10.8981
▁hike	-10.8986
▁sky	-10.8987
▁danam	-10.8988
▁prasadv	-10.8989
▁nekem	-10.8992
▁bone	-10.8992
▁chema	-10.8995
▁leter	-10.9
chukunte	-10.9004
▁estunav	-10.9006
▁somu	-10.9008
105	-10.9009
▁tune	-10.9013
016	-10.9017
▁chesukuntu	-10.902
▁baguntay	-10.9022
▁won	-10.9024
stunte	-10.9026
▁velandi	-10.9026
▁shety	-10.9029
▁cop	-10.9031
chukovadam	-10.9033
estadu	-10.9038
▁musko	-10.9042
▁badly	-10.9042
▁vot	-10.9044
ugulo	-10.9046
▁teyandi	-10.9046
▁veladam	-10.9057
▁chodam	-10.9064
▁using	-10.9065
▁adukuntuna	-10.9068
▁ruda	-10.9072
▁relati	-10.9075
▁pelani	-10.9081
▁podune	-10.9087
▁aset	-10.91
▁vastav	-10.9102
sco	-10.9103
▁urstrulynan	-10.9106
pawanist	-10.911
▁paki	-10.911
▁mudi	-10.9111
dyna	-10.9116
▁sampu	-10.9117
▁padaru	-10.9118
nation	-10.9125
even	-10.9126
130	-10.9128
rob	-10.9133
nyayam	-10.9146
ians	-10.9147
wam	-10.9158
▁deh	-10.9168
▁gela	-10.9176
iden	-10.918
▁hoga	-10.9182
▁ochav	-10.9195
▁hoka	-10.9199
▁suna	-10.9201
▁alochinch	-10.9205
▁tesesi	-10.9212
▁dulu	-10.9219
▁adoka	-10.9227
461	-10.9256
▁petukunav	-10.9284
avati	-10.9308
▁bavani	-10.9309
amson	-10.9322
▁telsina	-10.9338
▁vip	-10.9344
▁chicha	-10.9349
antava	-10.9363
▁katam	-10.9365
▁paye	-10.9381
▁pori	-10.9402
▁nayakul	-10.9407
▁pranal	-10.941
▁dum	-10.9414
▁kumesa	-10.9422
potadi	-10.9426
ense	-10.9444
▁chaduvuko	-10.9445
ober	-10.9468
▁chestava	-10.9471
▁ostuna	-10.9472
▁padali	-10.9477
mbani	-10.9478
▁tamud	-10.9492
nemo	-10.9496
povali	-10.9499
scal	-10.9526
▁kodutuna	-10.9536
▁user	-10.9542
▁salu	-10.956
▁bayatik	-10.9562
dking	-10.9574
hail	-10.9575
mudu	-10.9598
▁wala	-10.96
▁sham	-10.9622
▁kumi	-10.9622
dagara	-10.9626
▁yah	-10.965
▁titincha	-10.9659
▁paksh	-10.9659
▁opukun	-10.9664
andro	-10.9667
▁lg	-10.9677
▁sand	-10.9682
▁rajya	-10.9682
▁taginchu	-10.9698
▁adiripo	-10.9754
iyaz	-10.9779
▁telusukoval	-10.9787
▁kurchuna	-10.9799
▁teliyaka	-10.9803
▁wear	-10.9816
▁suhas	-10.983
▁tondar	-10.9841
muri	-10.9851
arja	-10.9854
▁kura	-10.9859
▁center	-10.9869
▁bahu	-10.9878
sriram	-10.9886
valsindi	-10.9886
enge	-10.9887
chavu	-10.9888
▁bratuk	-10.9908
nakoduk	-10.9916
▁bagunta	-10.9928
sredar	-10.994
course	-10.9941
akilakineni	-10.9941
return	-10.9941
manoj	-10.9942
prakash	-10.9943
kishan	-10.9943
sandy	-10.9943
sandep	-10.9945
vamshi	-10.9947
▁35	-10.9949
▁kutur	-10.9955
style	-10.9955
own	-10.9961
jalaga	-10.9963
claim	-10.9977
▁rajakeya	-10.9984
▁sensib	-10.999
manchu	-10.9994
andamuri	-10.9995
▁nachuta	-10.9997
▁physi	-10.9999
ganti	-11
admire	-11.0004
realistic	-11.0007
▁chesindu	-11.0008
▁pawalol	-11.001
▁represent	-11.001
▁advertis	-11.001
▁comunity	-11.001
▁controversy	-11.001
▁deposit	-11.001
▁foreign	-11.001
▁graph	-11.001
▁importance	-11.001
▁lekpote	-11.001
▁panchayiti	-11.001
▁reservation	-11.001
▁reveiw	-11.001
▁satisfaction	-11.001
▁starsportstel	-11.001
▁unecesar	-11.001
▁anavasaranga	-11.001
▁banisatvam	-11.001
▁fedback	-11.001
▁hypocri	-11.001
▁mehbob	-11.001
▁soldier	-11.001
▁tumbnail	-11.001
▁abipraya	-11.001
▁aryasuku	-11.001
▁chenaipl	-11.001
▁complex	-11.001
▁mohalaki	-11.001
▁operation	-11.001
▁program	-11.001
▁nonsense	-11.001
▁statue	-11.001
▁figure	-11.001
▁namaskaram	-11.001
▁enginer	-11.001
▁jarige	-11.001
▁telecast	-11.001
▁strike	-11.001
uprashant	-11.001
▁mukesh	-11.001
▁convinc	-11.001
▁output	-11.001
maniac	-11.001
▁yoursanjali	-11.0011
▁gabarsing	-11.0011
victory	-11.0011
▁putuka	-11.0011
▁simhadri	-11.0011
▁launch	-11.0011
▁kashtapadi	-11.0011
▁auction	-11.0011
▁palavi	-11.0011
▁senior	-11.0011
▁flashback	-11.0011
▁saduvu	-11.0011
▁feb	-11.0011
▁sarcas	-11.0011
▁anvesh	-11.0011
▁devineni	-11.0011
▁flim	-11.0011
▁discourag	-11.0012
▁friendship	-11.0012
68	-11.0012
▁eripapa	-11.0012
▁profesion	-11.0013
▁bagupada	-11.0013
▁visit	-11.0013
▁coach	-11.0013
▁sowm	-11.0013
▁bigilu	-11.0013
▁chebuta	-11.0013
▁history	-11.0014
▁darna	-11.0014
▁zack	-11.0014
▁eatala	-11.0015
▁jonas	-11.0015
▁chalamandi	-11.0015
▁migilina	-11.0015
▁tidata	-11.0015
▁jargi	-11.0016
▁mohaniki	-11.0017
▁kastapada	-11.0017
▁indake	-11.0017
▁resign	-11.0017
▁susant	-11.0019
▁comision	-11.0019
▁curan	-11.0019
▁bavanatarak	-11.0019
stitut	-11.0019
▁sakafan	-11.0019
munde	-11.002
▁pitch	-11.002
▁suchit	-11.002
niranjan	-11.002
▁dengutunaru	-11.0022
zorp	-11.0022
▁vidanam	-11.0023
▁sharat	-11.0023
poja	-11.0023
▁govind	-11.0024
▁dougt	-11.0025
sunkara	-11.0025
▁amits	-11.0025
▁edustaru	-11.0025
▁badaka	-11.0025
▁amruta	-11.0026
▁masuk	-11.0028
▁vetiki	-11.0028
▁vestundi	-11.0028
▁batman	-11.003
▁knigt	-11.003
▁jagun	-11.0031
▁anirud	-11.0032
▁aug	-11.0032
▁prabo	-11.0032
pokuri	-11.0033
▁abimana	-11.0033
▁bikin	-11.0034
▁cheskovali	-11.0034
▁morig	-11.0035
▁tankyou	-11.0036
▁tirige	-11.0038
▁kalyanking	-11.0038
▁gvl	-11.0038
▁getup	-11.0039
▁nachali	-11.004
▁pedutunaru	-11.004
▁adutunadu	-11.004
▁basical	-11.0041
▁acnt	-11.0041
▁underst	-11.0041
▁bomb	-11.0042
▁cheseyandi	-11.0045
▁swati	-11.0046
▁pavala	-11.0047
▁chestunda	-11.0048
▁donation	-11.005
▁saisan	-11.0051
▁veyali	-11.0051
▁dvs	-11.0051
▁alvp	-11.0052
▁gnana	-11.0052
rahman	-11.0055
arbar	-11.0055
▁spon	-11.0055
▁cine	-11.0058
▁titadam	-11.006
▁chastaru	-11.0063
tarentra	-11.0063
▁povadam	-11.0064
▁scop	-11.0067
▁characterles	-11.0068
▁glam	-11.0068
▁sarada	-11.0068
▁anukoledu	-11.0069
▁rakam	-11.0073
▁chusukondi	-11.0075
▁arda	-11.0077
tolywod	-11.0078
▁rol	-11.0078
▁alia	-11.0078
▁edaru	-11.0079
▁tiyi	-11.0081
▁mca	-11.0081
▁durga	-11.0082
▁tarav	-11.0082
▁vachinapudu	-11.0082
lby	-11.0084
▁vamshi	-11.0084
▁fanboy	-11.0085
▁potunam	-11.0087
itect	-11.0088
▁sredar	-11.0091
▁yugan	-11.0092
▁akarledu	-11.0094
▁lunch	-11.0096
▁desha	-11.0096
▁chupinchadu	-11.0096
▁shre	-11.0097
▁nachani	-11.0097
▁sarkaru	-11.0098
▁baund	-11.0103
▁mumy	-11.0105
▁elantivi	-11.0105
▁madiri	-11.0107
▁wah	-11.011
▁adugutunaru	-11.0111
arda	-11.0112
▁vesukuna	-11.0113
▁pap	-11.0114
▁kukalaki	-11.0115
icaly	-11.0119
▁anukole	-11.0119
▁abc	-11.012
▁ayunte	-11.012
▁chestaro	-11.0121
valsinde	-11.0122
▁chesukondi	-11.0123
▁aipota	-11.0125
▁memor	-11.0126
▁salman	-11.0127
▁ishta	-11.0129
▁ostaru	-11.0133
▁pspkfan	-11.0134
▁gulabi	-11.0138
▁chase	-11.0141
▁core	-11.0143
▁vams	-11.0143
▁ivadaniki	-11.0151
▁vilaki	-11.0155
enue	-11.0157
▁chepeste	-11.016
▁upto	-11.0165
▁vachinda	-11.0168
enema	-11.0174
nuchi	-11.0179
fon	-11.0188
▁wale	-11.0189
▁matladutunavu	-11.0192
rchod	-11.0195
hase	-11.0205
▁chepinatu	-11.0206
▁vintuna	-11.0207
▁chustadu	-11.0209
▁elage	-11.0213
▁pranet	-11.0217
▁prepar	-11.022
▁spl	-11.0221
▁pudi	-11.0222
▁moral	-11.0224
▁labe	-11.0224
sports	-11.0226
▁ident	-11.023
▁cel	-11.0239
▁pose	-11.0241
rump	-11.0243
bag	-11.0243
▁vidam	-11.0244
▁chudadu	-11.0245
▁pande	-11.0246
▁potaru	-11.0247
▁jagad	-11.0248
rious	-11.025
▁maney	-11.0251
▁odipote	-11.0257
tory	-11.0258
▁pack	-11.0258
▁peks	-11.026
▁titinch	-11.0267
▁teliyada	-11.027
▁cringe	-11.0273
▁adige	-11.0278
▁gelustad	-11.03
odni	-11.0306
rvam	-11.0312
▁forest	-11.0312
vodu	-11.0319
▁2012	-11.0327
▁anku	-11.0343
▁minguta	-11.0351
▁ipd	-11.0353
▁robo	-11.0354
▁92	-11.0368
▁aytund	-11.0368
ndali	-11.0371
akarledu	-11.0371
▁kodaku	-11.0377
▁chsi	-11.0377
▁mf	-11.0377
trol	-11.0377
maheshian	-11.0381
tunada	-11.0386
saikiran	-11.0389
8093	-11.04
▁bato	-11.0403
pspkcult	-11.0406
▁pedutunav	-11.0406
▁batiki	-11.0408
▁vach	-11.0417
▁pebi	-11.042
unky	-11.0421
bara	-11.043
▁hr	-11.0436
▁epuda	-11.0447
▁edustunav	-11.0453
▁darmi	-11.0459
▁telust	-11.0472
▁dobind	-11.0475
▁servi	-11.0475
▁matladutuna	-11.0482
duram	-11.0487
▁vanda	-11.0492
stel	-11.0502
▁198	-11.0507
▁chusukunta	-11.0516
kilari	-11.0519
antav	-11.0522
▁iyaka	-11.0523
▁chepaman	-11.0538
vasara	-11.0541
untadi	-11.0549
▁telsuko	-11.0549
▁avtam	-11.0557
▁gelipincha	-11.056
▁unavu	-11.0579
pinchav	-11.058
rohi	-11.0584
▁ivav	-11.0603
inchukoni	-11.0616
▁ichad	-11.0618
▁danike	-11.0672
gohan	-11.0679
▁comer	-11.0682
▁dist	-11.0683
▁aiya	-11.0693
▁harsh	-11.0703
8931	-11.0713
bled	-11.0716
▁titan	-11.0739
▁fam	-11.0743
▁dimpi	-11.0771
▁maharis	-11.0785
vj	-11.0806
▁syn	-11.0828
chukovali	-11.0858
nirup	-11.0866
harish	-11.0868
▁tube	-11.087
▁woh	-11.0871
▁151	-11.0871
▁sadis	-11.0881
▁edustuna	-11.0907
▁kanipista	-11.0912
▁bolo	-11.0926
som	-11.0937
▁baitik	-11.094
▁bila	-11.0946
untay	-11.0952
182	-11.0965
bility	-11.097
▁ichukun	-11.0975
chestaru	-11.0994
idy	-11.1004
chesa	-11.1023
▁vuri	-11.1034
liya	-11.1039
▁potav	-11.106
▁edche	-11.1064
▁rub	-11.1084
▁pedtun	-11.1104
yuh	-11.1116
▁baj	-11.112
vataniki	-11.1124
▁srikar	-11.115
▁supri	-11.1151
▁gw	-11.1162
▁peb	-11.1174
▁daruna	-11.119
tabad	-11.1195
kutunaru	-11.1206
▁beca	-11.1211
▁avutunav	-11.1213
vakelsab	-11.1216
▁chr	-11.1224
▁jg	-11.1232
swar	-11.1234
▁techukun	-11.1235
anger	-11.1242
▁yedav	-11.1248
akshi	-11.126
▁migil	-11.1274
▁telvad	-11.1283
lanka	-11.1286
uang	-11.1295
▁mingutuna	-11.1298
madav	-11.1318
▁peak	-11.1324
▁sentim	-11.1333
aswini	-11.1334
hater	-11.1335
eyatam	-11.1336
▁expectation	-11.1348
fangirl	-11.135
cbn	-11.1356
▁poyen	-11.1359
gowtam	-11.1369
comrade	-11.1369
loyal	-11.137
powerstar	-11.137
koratala	-11.137
hyderabad	-11.137
world	-11.1371
student	-11.1372
rahul	-11.1372
word	-11.1376
satya	-11.1377
twt	-11.1377
chedy	-11.1379
▁marchipoy	-11.138
▁positiv	-11.1382
party	-11.1383
sharma	-11.1387
remake	-11.1388
sory	-11.1392
tukoni	-11.1397
260	-11.1399
atma	-11.14
▁sanga	-11.1404
ushant	-11.1409
▁jevita	-11.141
▁auto	-11.1412
master	-11.1412
adict	-11.1415
balaya	-11.1418
mpire	-11.1427
▁bail	-11.1429
jha	-11.1433
sevalu	-11.1435
▁setaramaraj	-11.1435
▁digajar	-11.1437
▁hyndavi	-11.1439
▁wkwk	-11.1439
bairstow	-11.1439
nenokadine	-11.1439
▁adipurush	-11.1439
▁ambulance	-11.1439
▁anusuyakasba	-11.1439
▁bunyanacult	-11.1439
▁calmeharsh	-11.1439
▁chemistry	-11.1439
▁concentrate	-11.1439
▁escape	-11.1439
▁getready	-11.1439
▁holidays	-11.1439
▁intention	-11.1439
▁interfail	-11.1439
▁iphone	-11.1439
▁liberal	-11.1439
▁motivation	-11.1439
▁perspective	-11.1439
▁regret	-11.1439
▁university	-11.1439
▁vayasu	-11.1439
▁victim	-11.1439
▁vijayashanti	-11.1439
▁webseries	-11.1439
▁atempt	-11.1439
▁kutumba	-11.1439
▁maniratnam	-11.1439
▁prabutva	-11.1439
▁responsible	-11.1439
▁semangat	-11.1439
▁digajarindo	-11.1439
▁jajaja	-11.1439
▁lanjakodka	-11.1439
▁nepotism	-11.1439
▁rewiew	-11.1439
niprash	-11.1439
▁avoid	-11.1439
▁chatrapati	-11.1439
▁chicken	-11.1439
▁screnshot	-11.1439
shatagni	-11.1439
▁abishek	-11.1439
▁boycot	-11.1439
▁facebok	-11.1439
▁torture	-11.1439
▁railway	-11.1439
▁daridrud	-11.1439
▁study	-11.1439
▁dinchak	-11.1439
▁tintunava	-11.1439
▁fahad	-11.1439
▁superhero	-11.1439
capri	-11.1439
▁nilabada	-11.1439
▁imediate	-11.1439
▁unlike	-11.1439
▁argue	-11.1439
▁expert	-11.1439
▁negitiv	-11.1439
▁relangi	-11.1439
▁pubg	-11.1439
▁triger	-11.1439
▁divert	-11.1439
▁flaw	-11.1439
▁nadustundi	-11.1439
▁kaushalarmy	-11.1439
▁ramakrishna	-11.1439
bumrah	-11.1439
▁teacher	-11.1439
▁vagutunav	-11.1439
▁relax	-11.1439
▁jadav	-11.1439
▁vidya	-11.1439
▁gumpu	-11.1439
▁mahanati	-11.1439
▁goutam	-11.1439
▁spoke	-11.144
▁crush	-11.144
▁yuvaratna	-11.144
▁criticiz	-11.144
▁amayaku	-11.144
▁finger	-11.144
▁ashwa	-11.144
▁gmc	-11.144
▁sirisha	-11.144
▁gopichand	-11.144
▁drink	-11.1441
▁pakanodi	-11.1441
shilpa	-11.1441
▁aparna	-11.1441
▁beard	-11.1441
▁bavuna	-11.1441
▁opeskun	-11.1441
▁ledikada	-11.1441
▁diaries	-11.1441
▁labam	-11.1441
▁maroka	-11.1441
▁chief	-11.1441
▁ironman	-11.1441
▁guide	-11.1441
▁advancehbd	-11.1442
▁ambati	-11.1442
▁sankanaki	-11.1442
▁vlog	-11.1442
▁jyot	-11.1442
▁choice	-11.1442
▁gif	-11.1442
▁tiraga	-11.1442
▁zinda	-11.1442
hydcity	-11.1442
▁navutuna	-11.1443
▁striv	-11.1443
1739	-11.1443
▁slep	-11.1443
▁untundo	-11.1443
▁nachutay	-11.1443
▁random	-11.1443
▁propos	-11.1443
▁strange	-11.1444
▁acident	-11.1444
▁chenai	-11.1444
▁maruti	-11.1444
▁fox	-11.1445
▁shin	-11.1445
▁iron	-11.1446
▁comic	-11.1446
▁delay	-11.1446
▁frustrated	-11.1446
avour	-11.1446
▁judgement	-11.1446
▁gurtochindi	-11.1447
▁veyakunda	-11.1447
▁adigin	-11.1447
▁alert	-11.1447
▁yento	-11.1447
▁matine	-11.1448
xlent	-11.1449
laxman	-11.1449
▁balance	-11.1449
▁ichinanduku	-11.1449
lyric	-11.1449
▁presentation	-11.145
▁lamdi	-11.1451
yrsof	-11.1451
▁anpinchindi	-11.1451
▁phani	-11.1451
danukunta	-11.1452
▁crime	-11.1453
▁tamilnadu	-11.1453
▁bratukutunaru	-11.1453
ntolaki	-11.1454
vaikuntapuramulo	-11.1454
▁rajkumar	-11.1454
▁musing	-11.1456
▁chusinapude	-11.1458
▁padutundi	-11.1458
▁chudakandi	-11.1458
▁chadiva	-11.1459
▁chipak	-11.1459
rampage	-11.1459
▁compani	-11.1461
▁pawanism	-11.1461
▁kshana	-11.1461
▁maduri	-11.1462
▁umpire	-11.1462
▁tidataru	-11.1463
▁keliki	-11.1463
rockz	-11.1465
▁arha	-11.1466
▁peduta	-11.1466
▁ivaman	-11.1466
▁properly	-11.1467
▁karimnagar	-11.1467
▁warangal	-11.1467
▁deliver	-11.1467
shoutlo	-11.1467
▁confused	-11.1469
▁surgery	-11.1469
▁yevaraina	-11.147
▁samanam	-11.1471
▁suck	-11.1471
sore	-11.1472
▁kodtaru	-11.1473
▁chudadaniki	-11.1474
▁yentra	-11.1475
▁cheyalsina	-11.1475
mark	-11.1476
dymania	-11.1476
▁fandom	-11.1477
▁santosham	-11.1477
▁kakapoina	-11.1477
▁vagina	-11.1478
▁rocked	-11.1478
▁elon	-11.1479
▁angle	-11.1482
▁velipoya	-11.1482
▁ayinde	-11.1484
▁untunaru	-11.1484
some	-11.1485
▁koduka	-11.1486
▁matladutunadu	-11.1488
▁batakadam	-11.1488
▁selva	-11.1489
▁born	-11.1489
ulfa	-11.1489
▁konidela	-11.1489
▁tanq	-11.1489
▁coast	-11.149
▁alochinchandi	-11.149
▁undalsin	-11.1494
ugt	-11.1494
▁korukun	-11.1496
▁celebrate	-11.1497
▁chosanu	-11.1499
▁survi	-11.1503
▁nachutayi	-11.1504
▁pratisari	-11.1506
▁roja	-11.1507
▁lily	-11.1511
▁steve	-11.1512
▁shakun	-11.1513
▁round	-11.1515
▁chustanu	-11.1515
▁jarugutun	-11.1516
▁marchipo	-11.1518
▁brahma	-11.152
▁rise	-11.1521
▁merante	-11.1522
▁mister	-11.1523
▁jagu	-11.1525
▁padataru	-11.1526
mamani	-11.1527
▁veyale	-11.1527
▁250	-11.1528
▁anukuntunaru	-11.1528
▁kayak	-11.153
▁vision	-11.1531
dilep	-11.1532
▁kavachu	-11.1536
▁tuck	-11.1538
▁kedar	-11.1538
▁faci	-11.1539
▁anesa	-11.1539
▁gutle	-11.154
▁listener	-11.1542
▁suliga	-11.1542
▁hahahaha	-11.1543
▁wro	-11.1543
▁vastunadu	-11.155
fire	-11.1553
ulation	-11.1555
▁patindi	-11.1557
▁undachu	-11.1558
▁ruler	-11.1558
▁kemar	-11.1559
▁puran	-11.156
▁freak	-11.1561
▁sindu	-11.1562
▁faf	-11.1569
▁speaking	-11.1569
vendu	-11.1574
▁manchol	-11.1575
▁undevi	-11.1577
▁vesedi	-11.1584
road	-11.1584
▁balka	-11.1586
▁cheyamani	-11.1592
baji	-11.1594
alekapotuna	-11.1603
▁chikat	-11.1605
▁namite	-11.1606
creative	-11.1608
216	-11.1613
▁petanu	-11.1617
▁brown	-11.1619
▁wb	-11.1625
▁tarvat	-11.1636
▁chanal	-11.1643
kingof	-11.1643
▁fit	-11.1652
dokate	-11.1654
andranews	-11.1654
▁suti	-11.1659
▁untara	-11.1663
rajaseka	-11.1664
▁hadav	-11.167
vante	-11.1671
▁hary	-11.1675
▁subu	-11.1677
▁pig	-11.1677
▁kangar	-11.1685
▁kavalane	-11.1691
apolo	-11.1704
▁jl	-11.1718
▁fot	-11.1725
nbk	-11.1736
pinchochu	-11.1745
▁agipo	-11.1753
▁censore	-11.1759
▁dimp	-11.1772
570	-11.1773
▁cheyista	-11.1778
pret	-11.1782
▁vori	-11.1791
▁gunta	-11.1797
▁deva	-11.1798
parichi	-11.1807
▁denginatu	-11.1827
▁navin	-11.1832
▁vastada	-11.1846
▁batsm	-11.1851
mature	-11.1858
ikiran	-11.1879
▁basi	-11.1882
malani	-11.1896
351	-11.1901
▁charm	-11.1909
ntrfans	-11.1914
poyedi	-11.1919
msdian	-11.1941
265	-11.1945
▁include	-11.1948
▁cinam	-11.195
▁chutu	-11.1951
▁banda	-11.1962
▁pancha	-11.1981
▁cheyalsi	-11.1987
567	-11.199
▁visu	-11.1998
183	-11.2021
esukunaru	-11.2025
▁tipi	-11.2035
▁aypoya	-11.2039
▁chepalsin	-11.206
dentra	-11.2068
▁veyinch	-11.2076
pichi	-11.2094
avagane	-11.2101
▁kodtuna	-11.211
ivate	-11.2125
▁atmos	-11.2199
charanfan	-11.2212
parti	-11.2229
▁matra	-11.2234
▁chostam	-11.2251
kajalfan	-11.2261
pant	-11.2275
ular	-11.228
396	-11.2289
royal	-11.2292
▁vachesta	-11.2294
▁rent	-11.2311
▁dorikipo	-11.2328
▁chopincha	-11.2344
▁vocha	-11.2354
bdaycdp	-11.2419
▁odinch	-11.2462
415	-11.2468
▁enak	-11.2473
▁yedusta	-11.2488
ichayam	-11.2494
adevi	-11.2502
chinapudu	-11.2522
ajala	-11.2526
▁chivar	-11.256
▁vidan	-11.2567
▁educate	-11.2582
isback	-11.2583
▁sant	-11.2615
▁zoma	-11.2645
teaser	-11.2653
236	-11.2654
193	-11.2668
▁velalan	-11.2673
▁estav	-11.2673
▁esto	-11.2678
actor	-11.2681
▁janal	-11.2717
▁promot	-11.2745
ticipate	-11.2762
▁kalusta	-11.2794
357	-11.2798
▁chuseval	-11.281
970	-11.2823
itude	-11.2842
lsinde	-11.2858
▁drus	-11.2897
rtichin	-11.2972
▁chasin	-11.2973
▁visual	-11.2979
year	-11.2984
brahma	-11.3015
▁venak	-11.3021
spect	-11.3024
kishor	-11.3025
moksh	-11.3031
peace	-11.3036
chaitanya	-11.3037
denguta	-11.3037
crazy	-11.3037
expres	-11.3038
prema	-11.3038
gautam	-11.3042
play	-11.3044
2024	-11.3052
sarlu	-11.3053
▁odipoyi	-11.3056
koncham	-11.3057
shekar	-11.3076
▁sanja	-11.3077
chop	-11.3079
vundaval	-11.308
▁vuntund	-11.3083
▁velipota	-11.3088
rukune	-11.3094
beat	-11.3099
▁tyvie	-11.3101
▁trus	-11.3102
dagubati	-11.3104
ology	-11.3105
▁behavio	-11.3105
▁experiment	-11.3105
▁implement	-11.3105
conscious	-11.3105
fearsvakelsab	-11.3105
▁agnyatavasi	-11.3105
▁amrutavilas	-11.3105
▁chocolate	-11.3105
▁comparision	-11.3105
▁earphone	-11.3105
▁ekminikata	-11.3105
▁forensic	-11.3105
▁glimpse	-11.3105
▁jarigite	-11.3105
▁journalis	-11.3105
▁karyakarta	-11.3105
▁municipal	-11.3105
▁parliament	-11.3105
▁photograph	-11.3105
▁preference	-11.3105
▁punjab	-11.3105
▁reupload	-11.3105
▁suryudivo	-11.3105
▁tayaraya	-11.3105
▁techglares	-11.3105
▁translat	-11.3105
▁twodtrols	-11.3105
onapril	-11.3105
▁achieve	-11.3105
▁agnatavasi	-11.3105
▁chandrasekar	-11.3105
▁elegance	-11.3105
▁evpunch	-11.3105
▁gibran	-11.3105
▁lafut	-11.3105
▁okeokadu	-11.3105
▁overseas	-11.3105
▁vulgar	-11.3105
▁wkwkwk	-11.3105
▁buchibabu	-11.3105
▁elevate	-11.3105
▁rayalasem	-11.3105
▁rishab	-11.3105
▁shanmuk	-11.3105
▁tadepali	-11.3105
▁anikilkumar	-11.3105
▁comfort	-11.3105
▁iconic	-11.3105
▁window	-11.3105
zealot	-11.3105
▁sticker	-11.3105
▁mrstark	-11.3105
▁behaviour	-11.3105
▁silence	-11.3105
▁sushma	-11.3105
▁davidwarner	-11.3105
▁squa	-11.3105
▁liger	-11.3105
▁soalnya	-11.3105
▁costume	-11.3106
▁clock	-11.3106
▁mystery	-11.3106
▁convert	-11.3106
▁chutiya	-11.3106
▁brahmi	-11.3106
▁hruday	-11.3106
▁muskuni	-11.3106
▁purugu	-11.3106
▁sometimes	-11.3106
rupatibyelection	-11.3106
▁lanzakodaka	-11.3106
▁badshah	-11.3106
▁emadya	-11.3106
▁nilabadi	-11.3106
▁swapna	-11.3106
▁getarts	-11.3106
▁nilabet	-11.3106
▁stalin	-11.3106
▁atreya	-11.3106
▁dikumalin	-11.3106
▁frequen	-11.3106
▁jailgun	-11.3106
▁vyakt	-11.3106
▁living	-11.3106
▁wildog	-11.3106
▁depend	-11.3106
▁lambdi	-11.3106
▁shreyas	-11.3106
▁gambir	-11.3106
▁stylish	-11.3106
▁majnu	-11.3106
▁ultra	-11.3106
▁roug	-11.3106
▁munchak	-11.3106
▁nashtam	-11.3106
▁shivanirvana	-11.3106
romantic	-11.3106
▁pitre	-11.3106
▁supose	-11.3106
srenivas	-11.3106
snigda	-11.3106
▁chepukune	-11.3106
▁ychep	-11.3106
▁hardwork	-11.3107
▁geliste	-11.3107
temporar	-11.3107
▁deket	-11.3107
▁tayaru	-11.3107
▁angel	-11.3107
▁ishq	-11.3107
▁umesh	-11.3107
magadera	-11.3107
▁avsaram	-11.3107
▁tnx	-11.3107
▁agric	-11.3107
▁kanadiga	-11.3107
▁tambi	-11.3107
▁avasram	-11.3107
▁bread	-11.3107
▁kalpita	-11.3107
▁handsome	-11.3107
▁ipatidaka	-11.3107
▁ponle	-11.3107
▁apear	-11.3107
▁bangaram	-11.3107
▁ayush	-11.3108
▁prison	-11.3108
▁pampu	-11.3108
▁yogitwetz	-11.3108
▁israel	-11.3108
▁kalupuko	-11.3108
▁rockstar	-11.3108
▁akshara	-11.3108
lamudi	-11.3108
▁trash	-11.3108
▁adbuta	-11.3108
▁infra	-11.3109
dimulap	-11.3109
▁confes	-11.3109
▁sudarshan	-11.3109
iredys	-11.311
▁revati	-11.311
▁petochu	-11.311
▁bulodu	-11.3111
1515	-11.3111
▁geliche	-11.3111
▁bojana	-11.3111
▁vagadam	-11.3111
▁aqu	-11.3111
▁chupinche	-11.3111
▁tiyu	-11.3111
▁himself	-11.3112
▁seshu	-11.3112
parvati	-11.3112
▁cheyagala	-11.3112
▁swayam	-11.3113
7961	-11.3113
▁charge	-11.3113
▁sujan	-11.3113
▁troph	-11.3115
▁risk	-11.3115
2517	-11.3115
▁sunel	-11.3115
▁anipinchuko	-11.3115
▁jevan	-11.3115
▁justicefor	-11.3116
▁ramprasad	-11.3116
akodadu	-11.3117
▁salaha	-11.3118
▁text	-11.3118
▁houseful	-11.3118
▁avatle	-11.3118
▁vadilesta	-11.3119
▁vakil	-11.3119
▁marchipoku	-11.312
▁vuntayi	-11.312
▁rls	-11.312
▁dengutunadu	-11.312
▁chandala	-11.3121
▁yedupu	-11.3121
▁nunche	-11.3121
▁induke	-11.3121
▁avakudadu	-11.3121
▁chamba	-11.3121
853	-11.3121
foramcharan	-11.3121
▁kriti	-11.3124
▁glas	-11.3124
▁shanti	-11.3125
▁flat	-11.3125
rashtra	-11.3127
▁gadichay	-11.3127
▁veyochu	-11.3128
▁navendfm	-11.3129
▁balons	-11.313
imran	-11.3131
▁avatala	-11.3134
▁chepukuntaru	-11.3134
▁adicted	-11.3135
▁nuvenduku	-11.3135
▁meals	-11.3135
▁sharwa	-11.3136
▁parvale	-11.3136
▁alwaysrc	-11.3139
▁dengichukun	-11.314
ization	-11.3142
▁masmaharaja	-11.3144
▁ride	-11.3145
▁rounder	-11.3145
chitram	-11.3148
iao	-11.3149
▁vachestaru	-11.3149
untundi	-11.315
▁marchipoyaru	-11.3151
▁navukuntu	-11.3151
▁adagadam	-11.3153
secular	-11.3154
▁hbo	-11.3154
▁batukutunaru	-11.3156
▁bayapadi	-11.3158
papa	-11.3159
▁bayo	-11.3159
▁tagatu	-11.316
▁water	-11.3161
▁bajo	-11.3161
▁ayndi	-11.3162
▁tiyadam	-11.3162
▁manushula	-11.3162
▁overate	-11.3162
▁profes	-11.3164
▁yavaru	-11.3164
▁patabi	-11.3164
▁chastunav	-11.3165
▁moive	-11.3166
▁bagundali	-11.3166
▁rice	-11.3167
▁sarva	-11.3171
▁woke	-11.3171
▁varku	-11.3172
iyte	-11.3174
▁driver	-11.3175
abim	-11.3175
▁jung	-11.3176
▁rendo	-11.3178
▁chasaru	-11.3179
▁adugutaru	-11.318
▁petadaniki	-11.3183
▁abiram	-11.3187
▁avutunaru	-11.3189
▁chesesadu	-11.319
238	-11.3191
▁rewi	-11.3191
▁pehl	-11.3192
▁six	-11.3192
▁patitu	-11.3193
▁mohit	-11.3193
▁shake	-11.3195
▁chepdam	-11.3196
▁vachchind	-11.3198
ajay	-11.3199
▁pilch	-11.3201
kapor	-11.3202
▁jwa	-11.3203
▁cheyalante	-11.3203
▁itay	-11.3204
▁akanda	-11.3206
▁wf	-11.3212
▁chesevadu	-11.3214
▁shade	-11.3217
▁citi	-11.3217
▁shanu	-11.3218
▁padaledu	-11.3218
work	-11.3219
▁prave	-11.322
576	-11.3222
▁chudanu	-11.3225
▁bache	-11.323
▁elivat	-11.3239
hyd	-11.3249
▁lik	-11.3249
rybos	-11.3253
▁ipatike	-11.3255
alel	-11.3255
wets	-11.3267
desinc	-11.3271
adarsh	-11.3272
msd	-11.3272
▁kalupuku	-11.3279
▁daram	-11.3282
▁pagul	-11.3283
candy	-11.3293
adre	-11.3294
▁yeripuk	-11.3304
▁ardamavt	-11.3306
imala	-11.3311
▁dengutunav	-11.3312
▁medica	-11.3312
▁ponile	-11.3316
▁stone	-11.3317
235	-11.3347
▁pilichi	-11.3353
nipiya	-11.3365
husa	-11.338
▁singer	-11.3387
▁yashwan	-11.3407
▁dekatle	-11.3414
adagali	-11.3424
▁nakincha	-11.3427
urent	-11.3459
iyani	-11.3463
824	-11.3494
▁chanipotun	-11.3504
▁edcha	-11.3506
njan	-11.3507
▁kartikred	-11.351
▁venuka	-11.3535
▁creat	-11.3539
▁sangam	-11.3541
▁prop	-11.3551
▁droh	-11.3588
▁avaman	-11.3607
moris	-11.3612
izat	-11.3623
mantaru	-11.3638
▁shr	-11.3649
tagoni	-11.3656
petuko	-11.3678
▁uminch	-11.3699
▁marchipole	-11.3702
▁nadipi	-11.3712
janasena	-11.3716
▁chastun	-11.3719
▁pichod	-11.3724
▁educat	-11.3726
▁drf	-11.3729
hakunam	-11.3751
▁dengutav	-11.3768
▁cok	-11.3809
▁samadana	-11.3814
wick	-11.386
emundi	-11.3862
rect	-11.3869
kshit	-11.3871
▁shiv	-11.388
chese	-11.3882
▁avtunav	-11.3884
▁pechi	-11.3884
▁mamid	-11.3895
▁chuskunta	-11.3901
vista	-11.3907
jangan	-11.391
▁chsko	-11.3949
vasip	-11.3983
itlane	-11.3998
▁nijamain	-11.4001
jdep	-11.4021
▁ramj	-11.4021
▁jrntr	-11.4023
aeina	-11.4043
ulugu	-11.4068
▁falt	-11.4088
▁strugle	-11.4102
190	-11.418
chinodu	-11.4194
kodakalara	-11.4209
▁vatal	-11.4233
▁korik	-11.4246
yipotundi	-11.4273
danamata	-11.4285
▁anipich	-11.4296
▁vinadanik	-11.432
cow	-11.4339
▁amukun	-11.4383
195	-11.4385
undalsindi	-11.4391
▁preminch	-11.44
▁includ	-11.4414
▁vestav	-11.4439
▁serv	-11.4444
ears	-11.4505
enugu	-11.4516
▁vasa	-11.4547
▁format	-11.4571
▁compet	-11.4598
697	-11.4602
chowdar	-11.4629
marata	-11.4663
▁adaval	-11.4711
ound	-11.4726
▁padkun	-11.4738
▁chosinapud	-11.4738
inese	-11.4775
notic	-11.4791
imate	-11.4794
▁shah	-11.4796
laksh	-11.4797
ichanu	-11.4847
▁intens	-11.4853
▁trad	-11.4861
▁ayunt	-11.4887
316	-11.4942
▁musalod	-11.4944
rajnik	-11.4951
butchi	-11.4962
maheshwar	-11.4969
▁minute	-11.4972
▁vakelsabtrailer	-11.4977
634	-11.4982
▁taruv	-11.5003
konidela	-11.5034
coast	-11.5034
search	-11.5037
power	-11.5038
praven	-11.5038
sainik	-11.5038
vizag	-11.5038
drop	-11.5038
while	-11.5038
abijet	-11.5038
kohli	-11.5038
yanike	-11.5039
venky	-11.5039
pushpa	-11.504
monts	-11.504
ysjagan	-11.5041
space	-11.5041
hapy	-11.5042
efect	-11.5042
▁chstu	-11.5044
edits	-11.505
national	-11.5052
nitya	-11.5053
▁qualit	-11.5053
▁rowd	-11.5053
▁huh	-11.5053
▁kanapadaled	-11.5056
▁avutund	-11.5056
manesh	-11.508
▁produce	-11.5082
suport	-11.5083
▁elect	-11.5086
▁aprecia	-11.509
ification	-11.5093
▁akarle	-11.5101
▁suspen	-11.5101
ishwar	-11.5105
ordinary	-11.5105
festival	-11.5105
▁baradwaj	-11.5105
▁corporat	-11.5105
▁cyberabad	-11.5105
▁encounter	-11.5105
▁democra	-11.5105
▁dunapotu	-11.5105
▁eliminate	-11.5105
barsinghysteria	-11.5105
duradrushtakaram	-11.5105
forclasicdarling	-11.5105
heroinealuarjun	-11.5105
structure	-11.5105
trendonaug	-11.5105
▁atadifanlkada	-11.5105
▁bangalore	-11.5105
▁benifit	-11.5105
▁bolibatch	-11.5105
▁century	-11.5105
▁chinapilodu	-11.5105
▁constitution	-11.5105
▁contribut	-11.5105
▁dcvsrh	-11.5105
▁drushyam	-11.5105
▁gurtoche	-11.5105
▁hashtag	-11.5105
▁individual	-11.5105
▁intelectual	-11.5105
▁jarvistwetstm	-11.5105
▁lanjakodku	-11.5105
▁mahalakshmi	-11.5105
▁manofmasesntr	-11.5105
▁megopichand	-11.5105
▁mipaltan	-11.5105
▁observation	-11.5105
▁remuneration	-11.5105
▁republic	-11.5105
▁santubaby	-11.5105
▁specific	-11.5105
▁srikakulam	-11.5105
▁starniadugu	-11.5105
▁vishwaksen	-11.5105
▁argument	-11.5105
▁constituenc	-11.5105
▁constructi	-11.5105
▁fanofsmb	-11.5105
▁oterwise	-11.5105
▁particular	-11.5105
▁psyco	-11.5105
▁supreme	-11.5105
▁vijayshankar	-11.5105
▁jargutun	-11.5105
▁contact	-11.5105
▁konasema	-11.5105
▁sharmila	-11.5105
▁studio	-11.5105
erwhelm	-11.5105
▁strateg	-11.5105
tsunami	-11.5105
▁teamtyview	-11.5105
▁dedicate	-11.5105
▁gourava	-11.5105
▁comparing	-11.5105
safron	-11.5105
▁besok	-11.5105
▁chanakya	-11.5105
▁portray	-11.5105
▁princetarun	-11.5105
▁satvik	-11.5105
▁satyameva	-11.5105
▁sentence	-11.5105
onprime	-11.5105
▁benfit	-11.5106
▁maheswar	-11.5106
▁period	-11.5106
▁provide	-11.5106
▁berlin	-11.5106
▁pengen	-11.5106
▁pradesh	-11.5106
chunduru	-11.5106
gowda	-11.5106
▁pogide	-11.5106
▁airtel	-11.5106
▁spider	-11.5106
▁lanza	-11.5106
▁pension	-11.5106
▁samajam	-11.5106
▁telavarit	-11.5106
▁ponamka	-11.5106
▁rival	-11.5106
▁minginchukun	-11.5106
▁rutles	-11.5106
▁daridrul	-11.5106
▁pramod	-11.5106
▁bazar	-11.5106
▁deact	-11.5106
▁industri	-11.5106
▁flower	-11.5106
▁snehit	-11.5106
▁contagi	-11.5106
bisket	-11.5106
▁abilash	-11.5106
▁dialog	-11.5106
▁mounam	-11.5106
▁lmao	-11.5106
748	-11.5106
▁chevilo	-11.5106
▁pogidi	-11.5106
▁gemini	-11.5106
▁blank	-11.5106
▁telivitetal	-11.5106
▁sheshu	-11.5106
▁onlyfr	-11.5106
▁picheki	-11.5106
▁sugun	-11.5106
▁njoy	-11.5106
▁daridran	-11.5106
▁jackspa	-11.5106
▁nawab	-11.5106
▁toilet	-11.5106
▁cream	-11.5106
▁synder	-11.5106
▁partner	-11.5106
▁chinmay	-11.5106
▁filmaker	-11.5106
▁multi	-11.5106
▁gurtincha	-11.5106
▁flirt	-11.5106
▁asociation	-11.5107
▁ranadagubati	-11.5107
▁kyun	-11.5107
▁sneha	-11.5107
▁srujan	-11.5107
▁opose	-11.5107
▁weird	-11.5107
▁geniu	-11.5107
▁angry	-11.5107
▁atluri	-11.5107
▁interstel	-11.5107
▁avsram	-11.5107
▁cigar	-11.5107
▁stunt	-11.5107
▁yendukant	-11.5107
▁christian	-11.5107
▁pumka	-11.5107
▁iamsush	-11.5107
▁club	-11.5108
mujhe	-11.5108
▁rajev	-11.5108
stuner	-11.5108
yearfor	-11.5108
kmini	-11.5108
▁monster	-11.5108
▁adirindi	-11.5108
▁purna	-11.5108
▁rashid	-11.5109
▁anirudoficial	-11.5109
▁fligt	-11.5109
▁vikrant	-11.511
▁venala	-11.511
▁cheyakapovadam	-11.511
▁megaloyal	-11.511
▁orient	-11.511
▁lyf	-11.511
▁primevideoin	-11.511
▁cantik	-11.511
rpanch	-11.511
▁acid	-11.511
▁presence	-11.5111
▁kranti	-11.5111
suvarna	-11.5111
▁ipr	-11.5112
▁nitesh	-11.5112
▁unrealistic	-11.5112
▁itsmepr	-11.5112
omagan	-11.5112
▁saripoyedi	-11.5112
▁naruto	-11.5112
▁sebel	-11.5112
▁anouncement	-11.5113
▁dpadf	-11.5113
jawab	-11.5113
▁compos	-11.5113
▁raktam	-11.5113
▁janasai	-11.5113
▁pakanola	-11.5113
▁blog	-11.5113
▁favour	-11.5113
▁chestuntaru	-11.5114
▁colector	-11.5114
▁shamsha	-11.5114
malikarjun	-11.5114
yearsof	-11.5115
▁marchipoyav	-11.5115
▁lepesadu	-11.5115
▁punet	-11.5115
ramanuja	-11.5115
▁tamari	-11.5116
▁font	-11.5116
▁danger	-11.5116
▁canten	-11.5117
▁anpistundi	-11.5117
▁mohamad	-11.5117
▁tesukovali	-11.5117
▁navukuna	-11.5117
▁caption	-11.5118
nspt	-11.5118
lusion	-11.5118
▁advance	-11.5119
journ	-11.5119
▁pulse	-11.5119
▁dorikite	-11.512
hbdsyedsohelryan	-11.512
navdep	-11.512
▁galisamp	-11.512
▁padesadu	-11.5121
▁disney	-11.5121
▁takuve	-11.5121
▁size	-11.5121
▁padtundi	-11.5121
▁saripotundi	-11.5122
▁mcu	-11.5123
▁megafans	-11.5123
▁sardar	-11.5124
▁jevinch	-11.5124
sartak	-11.5124
irates	-11.5125
▁harshit	-11.5125
▁profit	-11.5125
▁agenda	-11.5126
▁periga	-11.5126
▁nagaraju	-11.5126
protest	-11.5126
▁chestundo	-11.5127
▁prasantam	-11.5127
▁cheskuntunaru	-11.5129
▁petukuntadu	-11.5129
▁harus	-11.5129
▁chyandi	-11.513
▁roje	-11.513
rawata	-11.513
▁harinani	-11.513
rider	-11.513
▁chiyan	-11.5131
▁bratakadam	-11.5131
jayadev	-11.5131
▁undevalu	-11.5131
▁musukun	-11.5132
▁sahu	-11.5133
raut	-11.5134
▁shrav	-11.5136
▁hires	-11.5137
xero	-11.5137
▁palana	-11.5137
▁busan	-11.5137
▁shud	-11.5138
▁matladaniki	-11.5138
opic	-11.5138
▁paul	-11.514
▁everyday	-11.5141
ternal	-11.5141
canc	-11.5143
ency	-11.5143
358	-11.5145
▁hinduvul	-11.5146
▁shape	-11.5146
▁taginchi	-11.5147
▁putaledu	-11.5147
▁jarugutay	-11.5147
▁gurtunda	-11.5148
▁keshav	-11.5148
▁gudise	-11.5149
▁akira	-11.515
▁chepestaru	-11.515
▁peraga	-11.5153
usef	-11.5156
kwu	-11.5159
▁anantapur	-11.516
▁vaish	-11.516
trick	-11.516
▁eroj	-11.5163
▁egara	-11.5164
▁gorin	-11.5168
▁daiva	-11.5169
▁autori	-11.5173
njakoduk	-11.5175
nglish	-11.5178
▁samard	-11.5178
▁clue	-11.5181
▁shortfilm	-11.5182
from	-11.5185
▁karchupet	-11.5188
▁petinchu	-11.5197
▁silv	-11.5198
bumps	-11.5199
plain	-11.5201
asula	-11.5201
▁satire	-11.5212
muruga	-11.5214
odila	-11.5215
▁quit	-11.5244
asank	-11.5244
atvam	-11.5254
digital	-11.5258
undedi	-11.5258
ologi	-11.5263
▁diner	-11.5264
▁spend	-11.5265
▁inkevar	-11.527
▁distanc	-11.527
▁tidta	-11.5278
▁nazi	-11.5287
etox	-11.529
mishra	-11.529
▁pranav	-11.5293
▁patral	-11.5297
aswant	-11.53
anenenu	-11.5301
muner	-11.5305
▁padesta	-11.5306
▁anipistun	-11.5322
galig	-11.5324
▁vikas	-11.5336
▁sasta	-11.534
creation	-11.5344
▁viral	-11.5364
▁ninila	-11.5378
elief	-11.5385
▁drusti	-11.5393
milie	-11.5398
▁mamol	-11.5399
▁avtund	-11.5404
▁maheshint	-11.5418
▁namukun	-11.5464
diehardfan	-11.5474
▁manol	-11.5476
▁tumbad	-11.5481
▁patinchukole	-11.5495
conver	-11.5545
filter	-11.5556
▁pampista	-11.5565
▁joha	-11.5575
▁penchukunt	-11.5575
poyevadu	-11.5577
▁expl	-11.5583
lanipistundi	-11.559
vaniki	-11.5597
▁chepakarle	-11.5613
▁titukon	-11.5617
karab	-11.5646
▁bajar	-11.5647
isation	-11.565
ief	-11.5654
psk	-11.5667
sivaji	-11.5668
▁shur	-11.5685
▁crow	-11.5713
▁nived	-11.5717
abdula	-11.5748
trust	-11.575
ortie	-11.5762
folower	-11.5775
frm	-11.5775
856	-11.5793
▁naluguri	-11.5832
▁ayipoyi	-11.5859
▁teliyatled	-11.586
estnaru	-11.5861
rahat	-11.5862
uchcha	-11.5866
▁tesar	-11.5894
▁aien	-11.5896
▁tilis	-11.5905
▁namuko	-11.5942
▁vinapad	-11.5999
chopulu	-11.6004
penche	-11.6079
▁padatay	-11.6083
premi	-11.6086
975	-11.6135
▁tintav	-11.6143
▁manodi	-11.6162
▁manesta	-11.6192
▁telusukun	-11.6195
▁adamain	-11.6219
▁penchuko	-11.6221
▁mitr	-11.6227
boleh	-11.6253
ulture	-11.6333
▁btelug	-11.634
▁demon	-11.6359
▁lekapoy	-11.637
▁chepinchu	-11.6378
tumdi	-11.6422
pavankumar	-11.6431
▁pikind	-11.6439
▁idoka	-11.6553
▁yemund	-11.6602
▁trib	-11.6609
▁kotukuntuna	-11.6672
enapa	-11.6712
amigo	-11.6728
tilisat	-11.6759
▁pampe	-11.6851
amula	-11.6912
▁pogud	-11.6921
vdalo	-11.6993
▁countr	-11.6998
▁unsubscrib	-11.6998
omkar	-11.7004
▁chepesta	-11.7013
672	-11.7076
▁adutun	-11.7094
▁echad	-11.7124
▁diehard	-11.7159
▁gudaval	-11.7179
saicharan	-11.7247
▁chuskunt	-11.7248
ception	-11.7257
vaikuntapuramlo	-11.728
▁mukya	-11.7282
cribe	-11.7347
jaydev	-11.7369
▁jarugu	-11.7373
▁katukon	-11.7379
anukuntunav	-11.739
jection	-11.7442
▁celebrat	-11.7502
evadni	-11.7508
sriniva	-11.7527
manohar	-11.7536
superstar	-11.7537
warior	-11.7538
tirupati	-11.7538
concept	-11.7538
rowdy	-11.7539
talks	-11.7539
cdp	-11.7539
▁styl	-11.7542
solid	-11.7544
swamy	-11.7545
srikant	-11.7549
▁surger	-11.7552
▁complet	-11.7554
devot	-11.7561
▁teatr	-11.7561
selva	-11.7568
▁kavatle	-11.7583
▁gurtochi	-11.759
ehbdmaheshbabu	-11.76
▁lantol	-11.7601
▁distribut	-11.7602
ography	-11.7605
▁mounika	-11.7605
▁detective	-11.7605
bdayfestbegins	-11.7605
brahmotsavam	-11.7605
folowersangam	-11.7605
gastarchiranjevi	-11.7605
imposible	-11.7605
spectator	-11.7605
zaranjum	-11.7605
▁abimanyudu	-11.7605
▁akramalanjantr	-11.7605
▁anubunyfreak	-11.7605
▁arachakam	-11.7605
▁bewakof	-11.7605
▁blisful	-11.7605
▁cewek	-11.7605
▁chelaregipota	-11.7605
▁chepalanukuna	-11.7605
▁demigod	-11.7605
▁document	-11.7605
▁economic	-11.7605
▁feature	-11.7605
▁feminist	-11.7605
▁gentleman	-11.7605
▁global	-11.7605
▁ignoran	-11.7605
▁joseph	-11.7605
▁mahanubavudu	-11.7605
▁mangalavaram	-11.7605
▁morugutunaru	-11.7605
▁muncipal	-11.7605
▁olivia	-11.7605
▁overacting	-11.7605
▁prblm	-11.7605
▁precious	-11.7605
▁rajastanroyals	-11.7605
▁ranasingam	-11.7605
▁recogni	-11.7605
▁relationship	-11.7605
▁santoshshoban	-11.7605
▁shehnaz	-11.7605
▁srhvsdc	-11.7605
▁technology	-11.7605
▁twodgarage	-11.7605
▁vehicle	-11.7605
▁ventruka	-11.7605
avukaburuchalaga	-11.7605
jailavakusa	-11.7605
vikramarkudu	-11.7605
▁execut	-11.7605
▁feast	-11.7605
▁jashwant	-11.7605
▁paripoyadu	-11.7605
▁pativrata	-11.7605
▁phoenix	-11.7605
▁picturiz	-11.7605
▁savyasachi	-11.7605
▁unknown	-11.7605
▁virakti	-11.7605
▁yuvraj	-11.7605
calmeba	-11.7605
▁compliment	-11.7605
▁drushtilo	-11.7605
▁george	-11.7605
▁indraganti	-11.7605
▁infidel	-11.7605
▁sandilya	-11.7605
▁chendalam	-11.7605
▁consisten	-11.7605
▁pencil	-11.7605
prayatnam	-11.7605
▁choreograph	-11.7605
▁kasyap	-11.7605
▁manipulat	-11.7605
▁vimarshal	-11.7605
▁chichore	-11.7605
▁horible	-11.7605
▁nameisukumar	-11.7605
▁nayantara	-11.7605
▁perugutundi	-11.7605
▁prashantbme	-11.7605
▁reliance	-11.7605
▁tanushredy	-11.7605
▁vyapara	-11.7605
▁crypto	-11.7605
▁sbsb	-11.7605
▁standard	-11.7605
▁sorarai	-11.7605
▁pawanakalyan	-11.7605
01347	-11.7605
▁veyagalad	-11.7605
▁breate	-11.7605
▁source	-11.7605
aniversary	-11.7605
festivalbegins	-11.7605
▁anipistondi	-11.7605
▁chptunav	-11.7605
▁patetic	-11.7605
▁nisabdam	-11.7605
▁ausie	-11.7605
▁bsdk	-11.7605
▁polavaram	-11.7606
▁fashion	-11.7606
▁gmail	-11.7606
ismartshankar	-11.7606
▁konderi	-11.7606
▁housemate	-11.7606
▁fantasy	-11.7606
staysafe	-11.7606
▁utsah	-11.7606
▁manikanta	-11.7606
▁tamasha	-11.7606
▁corner	-11.7606
▁dorukuta	-11.7606
▁naugty	-11.7606
▁bumper	-11.7606
▁ricky	-11.7606
▁vurlo	-11.7606
▁lekunde	-11.7606
▁rupai	-11.7606
▁intersting	-11.7606
fansclub	-11.7606
▁sliper	-11.7606
▁himaja	-11.7606
▁gudavandi	-11.7606
pidugu	-11.7606
▁vemula	-11.7606
▁kgone	-11.7606
▁vadileyandi	-11.7606
▁kapatad	-11.7606
▁honor	-11.7606
▁anilkum	-11.7606
▁taruwat	-11.7606
▁alocate	-11.7606
▁pagile	-11.7606
▁carier	-11.7606
▁pongal	-11.7606
▁chadive	-11.7606
▁gowrav	-11.7606
▁matlda	-11.7606
▁pyans	-11.7606
inephil	-11.7606
phant	-11.7606
▁cepet	-11.7606
▁drlg	-11.7606
▁grace	-11.7606
▁urstrulynst	-11.7606
▁janasainik	-11.7606
▁kucing	-11.7606
▁filim	-11.7606
▁femal	-11.7607
▁regard	-11.7607
▁rashidkan	-11.7607
▁rajikiya	-11.7607
▁tnq	-11.7607
shmir	-11.7607
▁owai	-11.7607
psyche	-11.7607
▁vidyasagar	-11.7607
▁yedche	-11.7607
begins	-11.7607
▁sakti	-11.7607
gogineni	-11.7607
5687	-11.7607
▁sudir	-11.7607
▁mickey	-11.7607
edimple	-11.7607
garapati	-11.7607
▁rechipotar	-11.7607
▁lawyer	-11.7607
▁nijayati	-11.7607
▁radeshyamteaser	-11.7607
▁abimaninche	-11.7607
▁epatidaka	-11.7608
▁science	-11.7608
▁ashish	-11.7608
▁lingesh	-11.7608
uncul	-11.7608
▁large	-11.7608
▁imitat	-11.7608
▁pandabet	-11.7608
intfi	-11.7608
▁srinat	-11.7608
▁titinchukuna	-11.7608
▁border	-11.7608
tousand	-11.7608
▁magadiv	-11.7608
▁telisipotundi	-11.7608
▁blade	-11.7608
▁anipinchaledu	-11.7608
▁riview	-11.7608
▁digajarindi	-11.7609
▁esukondi	-11.7609
▁ngob	-11.7609
▁koneru	-11.7609
▁powerplay	-11.7609
▁chitibabu	-11.7609
▁manisharma	-11.7609
▁polika	-11.7609
▁trendsramcharan	-11.7609
▁inox	-11.7609
▁dfmpoja	-11.7609
mkesh	-11.7609
▁naperu	-11.761
▁whistle	-11.761
▁nerasam	-11.761
▁ontari	-11.761
▁gowtamol	-11.761
▁nangis	-11.761
▁bavunte	-11.761
▁abusi	-11.761
▁disini	-11.761
▁taluchukun	-11.761
▁rastraniki	-11.761
▁darlingfana	-11.761
▁anipinchukovali	-11.761
anpichindi	-11.761
▁aypoyindi	-11.761
▁xlife	-11.7611
sanyasi	-11.7611
racer	-11.7611
▁chostunte	-11.7611
▁mundamop	-11.7611
▁teskocharu	-11.7612
▁nelore	-11.7612
▁chaduvukuna	-11.7612
▁gelustaru	-11.7612
▁arupul	-11.7612
▁rhy	-11.7612
▁mohamatam	-11.7613
▁kelar	-11.7613
▁introduc	-11.7613
▁paripal	-11.7613
▁triple	-11.7613
richard	-11.7613
▁ekadnun	-11.7613
▁remed	-11.7613
▁anubavist	-11.7614
8683	-11.7614
▁vadileyali	-11.7614
1985	-11.7614
▁marichipoya	-11.7614
jadeja	-11.7615
▁evaleda	-11.7616
avataram	-11.7616
